{"stanza_vocab": {"this": 2398, "paper": 1435, "develop": 34, "a": 4452, "framework": 67, "for": 2775, "evaluate": 124, "the": 14585, "ability": 30, "of": 5488, "neural": 307, "model": 1002, "on": 1752, "answer": 77, "free-form": 1, "mathematical": 32, "problem": 475, ".": 10106, "contribution": 211, "be": 8130, "I": 989, ")": 3036, "publicly": 1, "available": 39, "dataset": 264, ",": 9141, "and": 4277, "ii": 36, "evaluation": 165, "two": 291, "exist": 139, "family": 8, "recurrent": 38, "network": 694, "transformer": 29, "think": 203, "that": 2783, "make": 432, "good": 630, "by": 769, "establish": 22, "benchmark": 40, "provide": 275, "some": 423, "preliminary": 17, "result": 808, "biased": 6, "because": 176, "once": 15, "do": 959, "exactly": 48, "same": 242, "thing": 43, "as": 1533, "although": 107, "at": 411, "much": 198, "small": 191, "scale": 44, ";": 200, "thus": 135, "happy": 25, "to": 5416, "see": 344, "such": 354, "public": 15, "reasonable": 43, "/": 353, "analysis": 150, "whether": 76, "accept": 46, "it": 1632, "or": 511, "not": 1647, "depend": 53, "what": 304, "standard": 124, "iclr": 70, "have": 1233, "towards": 24, "(": 2743, "one": 463, "propose": 630, "new": 241, "theory": 51, "generation": 66, "process": 77, "well": 362, "-": 2079, "thought-": 1, "out": 200, "there": 442, "large": 211, "variety": 20, "modules": 37, "try": 109, "generate": 130, "either": 47, "trivial": 16, "impossible": 12, "plus": 9, "in": 4418, "my": 104, "opinion": 23, "discussion": 127, "main": 201, "part": 117, "too": 79, "light": 16, "average": 63, "accuracy": 195, "across": 54, "interesting": 260, "metric": 68, "all": 376, "show": 500, "performs": 64, "than": 429, "author": 551, "should": 346, "move": 29, "portion": 4, "big": 27, "bar": 9, "plot": 53, "low": 115, "resolution": 11, "btw": 2, "into": 169, "text": 78, "discuss": 103, "thoroughly": 9, "details": 5, "how": 405, "however": 329, "can": 761, "appendix": 72, "also": 611, "entirely": 12, "satisfied": 8, "use": 1183, "only": 387, "about": 241, "something": 30, "like": 260, "beam": 3, "search": 107, "build": 30, "\"": 1245, "soft": 8, "secondary": 2, "?": 759, "other": 436, "want": 69, "test": 234, "set": 526, "with": 1412, "multiple": 94, "different": 332, "difficulty": 29, "level": 92, "composition": 29, "which": 764, "but": 507, "sure": 27, "captures": 7, "real": 65, "important": 161, "generalize": 46, "say": 104, "learn": 964, "factorise": 3, "single": 108, "variable": 122, "polynomials": 3, "factorising": 2, "transfer": 33, "between": 291, "task": 470, "e.g.": 224, "if": 428, "solve": 67, "equation": 78, "both": 231, "x": 127, "y": 42, "polynomial": 11, "unseen": 33, "case": 252, "option": 6, "unsolvable": 3, "example": 282, "special": 13, "character": 10, "x^2": 7, "5": 230, "you": 867, "training": 572, "\\sqrt": 1, "course": 20, "thank": 283, "suggestion": 114, "increase": 112, "we": 3888, "expand": 11, "possible": 121, "now": 67, "would": 641, "prefer": 7, "keep": 48, "actual": 24, "individual": 18, "module": 34, "performance": 427, "interest": 59, "space": 172, "description": 63, "appreciate": 58, "reviewer": 317, "very": 407, "mathematics": 10, "contain": 63, "extrapolation": 5, "include": 212, "generalization": 124, "number": 305, "long": 45, "sequence": 28, "more": 777, "function": 234, "compositions": 4, "similar": 190, "etc": 32, "Appendix": 112, "B": 34, "detail": 139, "attempt": 26, "exhaustive": 1, "type": 81, "extend": 51, "future": 125, "allow": 101, "none": 9, "currently": 45, "''": 843, "definitely": 19, "fit": 21, "within": 45, "aside": 7, ":": 1323, "no": 192, "need": 224, "could": 310, "simply": 53, "select": 80, "consistent": 30, "word": 66, "train": 243, "so": 255, "far": 43, "seem": 288, "outputting": 4, "true": 73, "false": 26, "generally": 29, "many": 139, "further": 152, "hope": 53, "current": 88, "range": 34, "comprehensive": 17, "reasoning": 50, "require": 146, "school": 3, "always": 30, "welcome": 9, "question": 247, "manner": 28, "#": 61, "weaknesses": 18, "application": 72, "bit": 65, "unclear": 63, "nice": 67, "spherical": 78, "convolutions": 24, "experimental": 167, "section": 448, "experiment": 621, "shrec17": 4, "three": 61, "method": 964, "under-performing": 2, "approach": 321, "leave": 38, "reader": 36, "when": 244, "someone": 9, "choose": 87, "utilize": 12, "then": 191, "compare": 331, "representation": 219, "significantly": 74, "outperforms": 40, "non-spherical": 4, "specific": 109, "useful": 113, "where": 231, "general": 156, "outperform": 31, "strengths": 23, "explain": 134, "implement": 32, "straight": 5, "forward": 33, "gpu": 16, "positive": 47, "review": 140, "address": 174, "concern": 140, "below": 99, "q1": 28, "A1": 18, "believe": 144, "non-rigid": 3, "shape": 53, "classification": 173, "retrieval": 12, "achieves": 42, "state-": 11, "of-": 21, "art": 86, "shrec": 4, "'s": 358, "11": 13, "mainly": 17, "contribute": 12, "bijective": 5, "parameterization": 15, "obtains": 2, "input": 155, "image": 483, "without": 137, "topological": 6, "information": 248, "loss": 182, "projection": 10, "represent": 56, "3d": 62, "will": 398, "object": 104, "non-convex": 17, "lossy": 3, "affect": 37, "rigid": 5, "extent": 11, "q2": 23, "a2": 13, "slightly": 32, "under-perform": 1, "state": 268, "due": 97, "introduce": 117, "retains": 1, "convex": 30, "geometric": 12, "improvement": 152, "add": 282, "1": 822, "less": 109, "top": 53, "sef": 1, "edf": 1, "statistic": 19, "minimum": 21, "distance": 63, "intersection": 6, "mean": 160, "deviation": 13, "reduce": 56, "2": 667, "work": 666, "genus": 5, "0": 61, "close": 73, "present": 195, "modelnet": 2, "17": 7, "arbitrary": 20, "prevent": 22, "from": 718, "topology": 5, "compared": 8, "most": 154, "compact": 8, "convolution": 83, "rely": 26, "datum": 459, "augmentation": 41, "iii": 22, "rotation": 43, "volumetric": 2, "multi-view": 2, "base": 354, "unknown": 10, "orientation": 5, "3": 498, "augmentations": 1, "they": 745, "sparse": 51, "voxel": 2, "redundant": 5, "Cohen": 8, "et": 469, "al.": 198, "2018": 202, "computationally": 17, "efficient": 50, "term": 170, "admit": 8, "price": 2, "another": 90, "advantage": 58, "local": 60, "filter": 38, "local-": 1, "global": 35, "multi-level": 1, "feature": 195, "extraction": 6, "al": 280, "esteves": 6, "lat-lon": 4, "grid": 26, "conduct": 52, "fourier": 7, "common": 34, "disadvantage": 9, "transform": 17, "support": 48, "unevenness": 1, "perception": 4, "field": 54, "high": 162, "near": 16, "pole": 8, "equator": 2, "experimentally": 15, "table": 196, "perturbed": 8, "ours": 28, "obtain": 88, "anisotropic": 12, "former": 14, "rotational": 3, "invariant": 25, "rotations": 13, "while": 265, "alt-": 27, "az": 37, "expect": 53, "perform": 183, "isotropic": 14, "limit": 42, "capacity": 47, "q3": 19, "a3": 8, "mention": 166, "perhaps": 31, "exciting": 6, "CNN": 19, "omnidirectional": 5, "vision": 37, "little": 32, "repository": 1, "prevalence": 2, "sensor": 2, "drone": 1, "robot": 46, "autonomous": 1, "car": 4, "compelling": 4, "strength": 17, "authors": 27, "variant": 35, "wgan": 7, "call": 41, "PC": 9, "gan": 142, "point": 352, "cloud": 34, "drawback": 4, "vanilla": 16, "deepset": 6, "classify": 76, "analyze": 25, "rationality": 1, "decoupling": 3, "generator": 61, "sandwiching": 2, "objective": 107, "achieve": 99, "estimation": 44, "wasserstein": 8, "aae": 5, "simplify": 11, "incremental": 21, "comment": 325, "calculate": 17, "w_u": 13, "primal": 5, "form": 74, "via": 50, "solving": 17, "assignment": 4, "programming": 1, "ever": 4, "sinkhorn": 4, "iteration": 38, "knowledge": 69, "popular": 29, "ot": 1, "effectively": 15, "reason": 59, "comparison": 211, "choice": 72, "optimizer": 28, "prove": 47, "w_s": 9, "variance": 64, "specifically": 75, "dynamics": 61, "w_l": 5, "accord": 33, "lemma1": 1, "epsilon2-": 1, "epsilon1": 4, "*": 234, "w(": 3, "p": 41, "G": 40, "2*": 1, "2epsilon1": 1, ">": 103, "epsilon2": 1, "assumption": 144, "lemma": 24, "stable": 12, "during": 87, "additionally": 21, "combine": 80, "mixture": 14, "20:1": 3, "i.e.": 125, "eqs": 3, "6": 123, "13": 7, "14": 12, "0.05": 4, "situation": 17, "value": 164, "stability": 15, "essentially": 18, "estimate": 89, "bias": 52, "may": 152, "suffer": 17, "bad": 60, "cause": 26, "its": 163, "typos": 10, "end": 64, "2nd": 3, "line": 72, "\\": 64, "mathbb": 4, "{": 154, "p}": 2, "}": 128, "3rd": 3, "->": 87, "epsilon_1": 1, "page": 123, "eq": 40, "\\lambda": 41, "\\mathbb": 2, "g}": 1, "appear": 63, "right": 69, "he": 19, "insightful": 16, "agree": 130, "way": 154, "upper": 37, "bind": 102, "original": 116, "divergen": 1, "T": 12, "iterations": 61, "late": 31, "gradient": 154, "backpropagate": 3, "through": 74, "expensive": 27, "infeasible": 3, "note": 132, "ipot": 1, "xie": 3, "get": 70, "rid": 1, "backpropagating": 6, "adopt": 19, "bertsekas": 1, "1985": 1, "combining": 8, "ipop": 1, "sandwiched": 1, "estimator": 24, "concerned": 15, "treat": 16, "bias-variance": 1, "trade-": 9, "off": 37, "practice": 64, "directly": 92, "correspond": 16, "compute": 43, "scaled": 3, "f_\\phi": 1, "discriminator": 45, "k-lipschitz": 1, "divide": 17, "k": 106, "therefore": 93, "just": 112, "numerically": 2, "coarse": 5, "find": 267, "ratio": 23, "ratios": 7, "reply": 13, "r2": 10, "above": 75, "d2f": 2, "face": 10, "coverage": 14, "1:0": 1, "6.03E+00": 2, "3.36e-01": 2, "40:1": 1, "6.06E+00": 2, "3.41e-01": 2, "5.77E+00": 2, "3.47E-01": 2, "10:1": 1, "6.85E+00": 2, "3.56e-01": 2, ":1": 1, "9.19E+00": 2, "3.67e-01": 2, "4": 368, "consider": 220, "Figure": 174, "aeroplane": 2, "fail": 35, "capture": 27, "tire": 1, "similarly": 23, "chair": 2, "recovers": 10, "leg": 2, "quantitatively": 3, "highlight": 28, "consistently": 12, "quality": 54, "=": 93, "summary": 75, "embeddings": 55, "theorems": 11, "rewrite": 12, "rule": 37, "in-": 7, "depth": 26, "apply": 177, "embed": 115, "yielding": 1, "rewritten": 4, "theorem": 96, "[": 691, "app": 2, "'(": 1, "emb": 1, "thm": 3, "emb(": 2, "]": 689, "property": 76, "deep": 216, "automated": 6, "proving": 9, "though": 63, "breakthrough": 2, "strong": 116, "weak": 47, "+": 109, "cute": 1, "proof": 38, "remain": 39, "limited": 58, "time": 309, "horizon": 14, "switch": 6, "back": 45, "prover": 1, "environment": 58, "nicely": 9, "design": 95, "testing": 61, "somewhat": 41, "surprising": 28, "empirically": 26, "miss": 79, "opportunity": 5, "likely": 49, "write": 116, "sometimes": 17, "overcomplicated": 1, "sect.": 3, "4.5": 2, "figure": 79, "commute": 5, "diagram": 1, "sentence": 65, "...": 49, "Architecture": 7, "why": 239, "$": 294, "\\sigma$": 4, "\\omega$": 4, "separate": 22, "p4": 1, "benefitial": 1, "pick": 25, "up": 74, "again": 47, "explicitly": 40, "recommendation": 20, "overall": 90, "majority": 8, "audience": 8, "enjoy": 9, "even": 144, "impact": 35, "people": 13, "research": 60, "detailed": 94, "4.4": 9, "\\alpha$": 4, "linear": 60, "layer": 214, "paragraph": 86, "start": 36, "p6par1": 1, "cheap": 5, "computing": 16, "p6par6": 1, "formulas": 6, "p6par7": 1, "measure": 80, "rate": 225, "p8": 1, "par1": 1, "approximate": 33, "\\alpha": 10, "e": 6, "gamma": 19, "'": 133, "undefined": 2, "probably": 34, "e'": 1, "caption": 10, "fig.": 37, "cot": 1, "understand": 118, "here": 115, "follow": 194, "p(": 36, "c": 47, "\\gamma": 5, "t_": 1, "i-1": 2, "pi'(": 1, "p_": 1, "pi(": 1, "p_i": 3, "p$": 1, "T_i$": 1, "pred": 3, "step": 159, "express": 9, "maybe": 24, "helpful": 46, "precise": 13, "notation": 27, "great": 44, "feedback": 74, "architecture": 120, "describe": 93, "produce": 47, "robust": 43, "complicated": 15, "solution": 88, "baselines": 137, "suggest": 106, "failure": 12, "corrected": 11, "typo": 49, "clarified": 30, "definition": 48, "multi": 2, "grateful": 7, "help": 116, "improve": 213, "4d": 16, "enhance": 17, "inference": 117, "strategy": 59, "interaction": 11, "video": 84, "State": 2, "the-": 4, "several": 93, "datasets": 174, "still": 122, "talk": 11, "arnet": 2, "difference": 122, "assume": 79, "related": 100, "sampling": 78, "handle": 43, "temporal": 17, "overlap": 5, "memory": 33, "speed": 24, "total": 29, "importantly": 14, "table4": 1, "resnet18": 7, "instead": 112, "resnet50": 8, "lack": 49, "spatio-temporal": 5, "convnet": 10, "minkowski": 1, "convolutional": 52, "cvpr": 23, "2019": 66, "issue": 93, "artnet": 8, "v4d": 17, "basically": 10, "alternative": 28, "CNNs": 16, "replace": 31, "smart": 2, "block": 35, "branch": 3, "unit": 46, "static": 5, "appearance": 2, "motion": 3, "clip-based": 1, "short": 27, "-term": 3, "video-level": 3, "short-term": 2, "long-term": 3, "uniformly": 3, "whole": 26, "U": 9, "randomly": 18, "action": 42, "each": 279, "overlaps": 1, "might": 104, "overlapping": 6, "length": 22, "algorithm": 344, "3.4": 18, "guarantee": 49, "non-overlapping": 2, "interact": 6, "8": 53, "gpus": 9, "gtx": 2, "1080": 2, "11178mb": 1, "take": 142, "0.67s": 1, "per": 48, "1.22": 1, "addition": 70, "report": 129, "gflops": 1, "typical": 7, "b": 31, "mini-kinetics": 3, "day": 8, "publish": 25, "after": 121, "communication": 1, "confirm": 18, "ourselves": 2, "top1": 3, "kinetics": 3, "400": 3, "74.3": 1, "%": 149, "whose": 13, "77.4": 1, "81.4": 1, "top5": 1, "yield": 23, "score": 97, "85.3": 2, "cite": 35, "second": 99, "version": 151, "utilizes": 4, "rgb": 10, "frame": 38, "quite": 79, "actually": 63, "go": 102, "yet": 41, "significant": 96, "finally": 34, "hopefully": 10, "rebuttal": 38, "stress": 7, "any": 204, "please": 117, "hesitate": 6, "tell": 19, "response": 160, "soon": 13, "rather": 111, "dense": 21, "exposition": 9, "area": 32, "self-supervised": 22, "discrete": 76, "imo": 2, "gain": 38, "vs.": 18, "continuous": 56, "give": 294, "leverage": 8, "nlp": 19, "sense": 54, "--": 67, "cost": 61, "first": 244, "promise": 28, "librispeech": 4, "Mohamed": 2, "irie": 3, "interspeech": 2, "conclusion": 62, "plan": 30, "inputs": 42, "audio": 8, "elaborate": 30, "fruitful": 3, ">>": 15, "themselves": 16, "cf.": 5, "wav2vec": 16, "vq-wav2vec": 11, "discretization": 8, "enable": 12, "literature": 73, "bert": 54, "discretized": 3, "speech": 28, "context": 85, "vq": 5, "Chaining": 1, "computational": 60, "effort": 44, "running": 2, "roughly": 9, "overhead": 4, "thanks": 80, "fix": 138, "update": 256, "post": 13, "broadened": 1, "delineated": 2, "additional": 156, "diffusion": 12, "argue": 53, "incorporate": 55, "structure": 111, "independent": 34, "cascade": 8, "predicts": 8, "primary": 20, "poor": 10, "presentation": 35, "mistake": 14, "last": 55, "reference": 78, "empty": 5, "parenthesis": 1, "least": 51, "formula": 17, "manuscript": 66, "15": 14, "difficult": 62, "modeling": 43, "i|d": 5, "q^d": 3, "eq.": 48, "12": 18, "conditional": 45, "probability": 33, "particular": 86, "node": 53, "infect": 7, "observe": 110, "plugging": 1, "decomposition": 3, "D": 47, "10": 116, "arrive": 10, "formulation": 23, "drop": 12, "involve": 41, "nodes": 42, "associate": 18, "parent": 5, "weighted": 21, "likelihood": 19, "j": 12, "infecting": 1, "Beyond": 6, "simplification": 3, "clear": 240, "intend": 14, "demonstrate": 83, "superior": 14, "benchmarks": 18, "own": 24, "necessary": 41, "compete": 11, "shortcomings": 2, "revision": 79, "reach": 21, "publication": 11, "moreover": 47, "clarify": 63, "consequence": 3, "clearly": 78, "valuable": 54, "clarity": 41, "explanation": 84, "correct": 62, "place": 24, "New": 4, "bellow": 2, "remark": 41, "R": 28, "totally": 9, "eq.10": 1, "simplifies": 1, "\\log": 3, "\\geq": 1, "\\mathbb{e": 1, "}_{": 1, "\\sim": 2, "\\left": 1, "sum\\limits": 1, "_": 32, "i=1}^": 1, "|D|": 1, "d_i": 4, "|": 162, "d_": 8, "<": 21, "i}": 16, "i_": 7, "{<": 2, "\\sum\\limits": 1, "_{v": 1, "\\not": 2, "\\in": 3, "u^d": 1, "v": 6, "u^d|": 1, "d_{\\leq": 2, "d|": 1, "\\right": 1, "aware": 27, "simplicity": 14, "conciseness": 1, "final": 56, "derivation": 10, "i_i|": 3, "easy": 91, ",i_": 1, "computation": 57, "i_i|d_": 1, "simple": 171, "product": 18, "d_i|": 1, "sum": 20, "since": 200, "obvious": 15, "hesitated": 1, "lot": 54, "decision": 35, "closely": 9, "implementation": 55, "hesitation": 1, "confusing": 34, "particularly": 32, "feel": 51, "infection": 4, "anymore": 5, "expectation": 24, "parameter": 254, "tend": 27, "probabilities": 11, "vectors": 22, "regard": 95, "episode": 17, "comprehension": 4, "precisely": 17, "optimize": 37, "change": 112, "aforementioned": 5, "baseline": 177, "tune": 52, "validation": 73, "size": 144, "hyper-parameters": 20, "arti1": 1, "optimal": 59, "every": 36, "except": 22, "ctic": 2, "dimension": 45, "d=50": 1, "induce": 7, "convergence": 81, "accompany": 5, "theoretical": 111, "justification": 22, "spread": 3, "body": 15, "overly": 4, "enough": 68, "welcoming": 1, "properly": 16, "refer": 77, "submission": 36, "link": 29, "tandem": 7, "recognition": 42, "generative": 74, "gmm": 2, "extracted": 6, "originality": 10, "moderately": 2, "significance": 28, "hard": 121, "assess": 12, "major": 35, "draft": 24, "color": 17, "red": 5, "updated": 4, "argument": 30, "revise": 99, "F": 26, "re-organized": 1, "completely": 26, "understanding": 57, "relation": 28, "post-process": 2, "hidden": 60, "dnn": 18, "purpose": 47, "noisy": 52, "label": 213, "em": 1, "highly": 37, "influence": 26, "outliers": 4, "specialized": 3, "against": 59, "hermansky": 1, "H.": 9, "Ellis": 1, "d.p.": 1, "sharma": 1, "S.": 40, "connectionist": 2, "conventional": 19, "hmm": 1, "system": 74, "ieee": 17, "icassp": 2, "2000": 3, "dear": 11, "anonreviewer1": 3, "let": 23, "know": 96, "investigates": 5, "possibility": 9, "predict": 83, "behaviour": 8, "architectures": 84, "hyperparameter": 51, "history": 14, "observation": 61, "researcher": 22, "reinforcement": 25, "agent": 77, "adapt": 41, "suitable": 30, "prediction": 115, "scheme": 43, "decoder": 57, "collapse": 27, "curve": 42, "next": 39, "formalize": 1, "partially": 31, "observable": 6, "mdp": 11, "ppo": 10, "model-": 9, "human": 75, "free": 28, "Wide": 1, "resnet": 30, "cifar": 90, "-10": 7, "error": 113, "Penn": 3, "Treebank": 3, "run": 94, "quickly": 10, "finishes": 3, "comparable": 32, "lean": 9, "despite": 21, "few": 116, "ask": 20, "avoid": 38, "potentially": 31, "unnecessary": 10, "lead": 81, "evidence": 39, "uncertainty": 56, "confidence": 39, "interval": 16, "otherwise": 18, "ptb": 13, "look": 56, "rest": 9, "hyperparameters": 59, "alone": 17, "policy": 119, "extremely": 24, "basic": 17, "unlikely": 7, "truly": 7, "concept": 64, "partial": 14, "observability": 1, "principled": 17, "parameterized": 8, "Gaussian": 47, "over": 152, "match": 29, "outperforming": 6, "maximum": 18, "manually": 11, "adjust": 7, "constant": 50, "adjusting": 1, "constraint": 62, "benchmarked": 2, "tuning": 48, "nevertheless": 17, "auto-tuners": 1, "among": 33, "tool": 8, "successfully": 15, "lstm": 55, "challenging": 45, "equally": 7, "operate": 7, "approximated": 9, "powerful": 12, "stochasticity": 12, "valid": 9, "benefit": 73, "multi-modality": 1, "cannot": 65, "robustness": 37, "control": 91, "instance": 50, "employ": 18, "weight": 134, "decay": 24, "adjustment": 3, "substantiating": 1, "claim": 130, "large-scale": 18, "study": 155, "openai": 2, "learning": 82, "dexterous": 1, "-hand": 1, "manipulation": 11, "arxiv": 43, "preprint": 34, "arxiv:1808.00177": 1, "Tang": 1, "discretizing": 1, "Space": 4, "on-policy": 2, "optimization": 151, "1901.10500": 1, "target": 73, "mutual": 87, "exclusive": 3, "child": 2, "story": 4, "organize": 8, "ontology": 3, "dalmatian": 1, "dog": 3, "mammal": 1, "key": 40, "hierarchical": 12, "learners": 5, "sota": 19, "fundamentally": 5, "principle": 21, "construct": 37, "advanced": 2, ".e.g.": 1, "Bayesian": 43, "unfair": 7, "misleading": 13, "sec.": 24, "guide": 8, "synthetic": 67, "3.1": 28, "nn": 14, "overfitting": 17, "mostly": 24, "attribute": 20, "one-hot": 2, "word2vec": 2, "zero-shot": 11, "4.2": 32, "unbalanced": 2, "class": 216, "nns": 4, "----": 1, "read": 82, "raise": 28, "jointly": 25, "novel": 94, "topic": 21, "semi-supervised": 47, "potential": 28, "disorganized": 1, "remove": 32, "fairly": 25, "inconsistent": 6, "1k": 5, "organic": 7, "100": 56, "500": 12, "domain": 259, "4.1": 21, "epsilon": 45, "versus": 52, "underperforming": 1, "svhm": 1, "7": 63, "easily": 49, "wrong": 18, "sst": 26, "stratified": 1, "ssl": 14, "extra": 30, "conjecture": 4, "regular": 12, "setup": 55, "repeatedly": 1, "&": 61, "selection": 50, "blue": 3, "abstract": 40, "order": 88, "readable": 4, "4.1.2": 2, "prohibitively": 2, "cpu": 2, "intensive": 3, "judiciously": 4, "apologize": 15, "modifications": 24, "ensembling": 12, "\u03c0": 3, "svhn": 36, "-100": 7, "10k": 4, "vat": 11, "teacher": 10, "250": 1, "6.5": 2, "supplementary": 14, "material": 18, "accuracies": 6, "\u2014": 292, "2k": 1, "supervise": 42, "38.71": 1, "0.47": 1, "26.99": 1, "0.79": 1, "27.36": 1, "1.2": 4, "18.02": 1, "0.60": 1, "21.55": 1, "1.48": 1, "15.73": 1, "0.31": 1, "23.15": 1, "0.61": 2, "15.72": 1, "0.50": 1, "laine": 4, "samuli": 2, "timo": 2, "aila": 4, "arxiv:1610.02242": 2, "2016": 68, "takeru": 2, "Miyato": 14, "shin-ichi": 1, "maeda": 3, "Masanori": 1, "Koyama": 3, "shin": 3, "ishii": 3, "virtual": 4, "adversarial": 161, "regularization": 108, "arxiv:1704.03976": 2, "2017": 138, "antti": 1, "tarvainen": 3, "harri": 1, "Valpola": 3, "role": 24, "Weight": 4, "averaged": 7, "consistency": 15, "initial": 40, "log-scale": 7, "begin": 7, "^": 17, "\u22125": 4, "unlabeled": 46, "beginning": 20, "balance": 10, "balancing": 5, "1000": 14, "45000": 1, "modify": 43, "expression": 21, "6.4": 6, "self-training": 8, "threshold": 50, "softmax": 49, "output": 131, "non-animal": 5, "degrade": 17, "-of-": 2, "23.5": 1, "26.3": 2, "26": 2, "odena": 2, "Augustus": 2, "realistic": 49, "algorithms": 5, "https://arxiv.org/abs/1804.09170": 1, "adaptive": 39, "tutoring": 3, "rule-based": 1, "extract": 12, "negative": 57, "pre-training": 57, "imbalanced": 11, "decrease": 18, "negatives": 15, "positives": 13, "word-embedding": 2, "similarity": 33, "detection": 21, "list": 27, "technical": 48, "novelty": 65, "combination": 52, "mature": 1, "technique": 103, "insight": 38, "rule-": 9, "extractor": 25, "already": 53, "query": 27, "title": 33, "gap": 23, "data": 13, "unsupervised": 41, "pre-trained": 25, "pure": 10, "sample": 213, "continuity": 5, "matter": 21, "education": 3, "sophisticated": 10, "retrieve": 4, "furthermore": 56, "recommender": 1, "project": 7, "student": 18, "onto": 5, "idea": 194, "recommend": 32, "boundary": 20, "beyond": 37, "cover": 21, "pattern": 39, "correctly": 22, "numerical": 15, "feasible": 8, "nature": 30, "creating": 2, "creative": 2, "suffice": 1, "prob2vec": 4, "relatively": 34, "tough": 1, "beat": 4, "Arora": 11, "anything": 17, "shot": 37, "differ": 18, "epochs": 14, "adjusts": 2, "curse": 1, "dimensionality": 9, "warm": 5, "batch": 100, "phase": 22, "intentionally": 1, "one-": 12, "reviewer2": 2, "multi-domain": 5, "mdl": 17, "mulann": 10, "distinct": 14, "define": 98, "discrimination": 2, "discriminate": 3, "belong": 17, "worst-domain": 1, "risk": 27, "h-divergence": 3, "discriminators": 1, "-motivated": 3, "numerous": 3, "empirical": 92, "various": 38, "digit": 11, "office": 5, "cell": 8, "nasty": 1, "effect": 58, "repulse": 1, "fraction": 6, "row": 22, "adaptation": 91, "interested": 28, "mnist": 63, "-m": 4, "usps": 3, "dslr": 3, "Amazon": 5, "webcam": 3, "da": 13, "adda": 4, "dsn": 3, "rank": 22, "entropy": 19, "obviously": 6, "must": 29, "specially": 3, "stage": 26, "updating": 16, "harm": 2, "vary": 26, "signal": 29, "conveyed": 2, "pseudolabeled": 1, "asymmetry": 1, "nothing": 9, "hence": 35, "connection": 60, "L": 18, "recent": 66, "tzeng": 7, "Eric": 6, "discriminative": 23, "Computer": 22, "vol": 3, "no.": 5, "2.": 3, "bousmalis": 2, "konstantinos": 1, "separation": 4, "advances": 23, "processing": 38, "zhao": 8, "han": 5, "Source": 5, "hoffman": 6, "Judy": 3, "mehryar": 2, "mohri": 3, "ningshan": 1, "zhang": 37, "Theory": 3, "-source": 3, "fact": 91, "aim": 44, "minimize": 26, "latter": 14, "goal": 71, "focus": 87, "[...]": 24, "Ben": 1, "David": 12, "pair": 34, "bounding": 4, "underlying": 5, "Office": 8, "display": 7, "e.1": 1, "source": 51, "necessarily": 31, "beneficial": 23, "q4": 11, "Comparison": 19, "a4": 5, "proceed": 6, "sequentially": 9, "indistinguishable": 1, "applicable": 42, "account": 32, "sub-classifiers": 1, "turn": 17, "counter": 3, "-productive": 1, "distinction": 15, "un-learned": 1, "re-programming": 1, "q5": 9, "a5": 5, "conservative": 3, "scalability": 6, "w.r.t.": 27, "thereof": 2, "renyi": 1, "divergence": 34, "hold": 49, "joint": 19, "distribution": 171, "England": 1, "Texas": 1, "California": 1, "eye": 1, "enforces": 2, "merge": 6, "marginals": 2, "q6": 4, "a6": 5, "indeed": 98, "misclassifications": 1, "early": 35, "4.3": 26, "misclassification": 2, "hyper-parameter": 10, "underestimates": 1, "p*": 1, "equal": 27, "p*=1": 1, "q7": 5, "a7": 7, "cardinal": 1, "union": 1, "dnc": 39, "masked": 5, "attention": 79, "erasion": 1, "de-allocated": 1, "element": 21, "sharpened": 1, "---": 15, "fast": 58, "precision": 6, "bAbI": 7, "really": 60, "dramatic": 4, "vote": 11, "implication": 9, "cosine-weighted": 1, "content": 13, "pretty": 13, "itself": 54, "top-level": 1, "care": 8, "complex": 67, "de-allocation": 3, "resurgent": 1, "thoughtful": 12, "!": 79, "deal": 15, "recover": 27, "exact": 27, "dictionary": 27, "activation": 22, "coefficients": 18, "proper": 9, "initialization": 24, "aurora": 1, "2015": 40, "converges": 20, "linearly": 8, "iht": 8, "noodl": 16, "recovery": 12, "guaranties": 1, "interestingly": 8, "stick": 4, "relevant": 52, "intuitive": 30, "superiority": 5, "respect": 35, "irreducible": 2, "coefficient": 19, "hard-": 1, "thresholding": 12, "overcomes": 1, "iterative": 15, "removes": 2, "dependence": 23, "ultimately": 6, "intuitively": 27, "symbiotic": 1, "relationship": 43, "factor": 61, "progress": 18, "imperative": 1, "appropriate": 35, "x_0": 1, "intuition": 26, "corresponding": 44, "statement": 35, "Analysis": 7, "Computational": 4, "~4": 1, "E.": 11, "takeaway": 3, "marginally": 6, "accounting": 1, "lasso": 6, "procedure": 37, "scan": 3, "owing": 1, "magnitude": 18, "E": 12, "separable": 2, "lower": 2, "distribute": 18, "cores": 1, "tensorflow": 6, "utilizing": 7, "release": 15, "code": 61, "package": 3, "mairal": 5, "09": 3, "online": 19, "dl": 12, "map": 66, "navigation": 11, "variational": 63, "selective": 8, "autoencoders": 5, "vsae": 15, "multimodal": 35, "elegant": 8, "flaws": 2, "Pro": 24, "prior": 135, "non-missing": 1, "modalities": 44, "especially": 61, "often": 42, "imperfect": 7, "encourage": 36, "missingness": 5, "auxiliary": 62, "binary": 39, "random": 98, "mask": 51, "over-complicated": 2, "con": 26, "factorized": 14, "latent": 149, "tsai": 7, "consist": 15, "disentangled": 7, "modality": 14, "-specific": 4, "phrasing": 2, "unconcise": 1, "informal": 3, "phrase": 4, "complete": 25, ".....": 1, "undesirable": 5, "a.": 5, "surprise": 4, "symbol": 13, "\\epsilon": 4, "bear": 7, "\\phi": 15, "\\psi": 4, "stand": 15, "crucial": 15, "c.": 2, "d": 14, "never": 20, "nrmse": 4, "pfc": 2, "e.": 3, "fine": 22, "weird": 3, "gram": 15, "serve": 14, "h.": 1, "speak": 6, "polish": 2, "experiments": 24, "corraborrate": 1, "tabular": 5, "multi-feature": 1, "sanity": 7, "check": 28, "seven": 1, "message": 27, "rejection": 9, "moment": 10, "captions": 8, "carefully": 21, "examine": 12, "reorganize": 2, "under": 90, "setting": 81, "variables": 1, "factorization": 5, "differentiate": 1, "unobserved": 16, "capable": 7, "meaningful": 31, "unimodal": 3, "encoders": 7, "eliminate": 3, "imputation": 17, "dependencies": 6, "imputed": 3, "conditioning": 11, "decoders": 4, "access": 17, "contradiction": 1, "individually": 10, "multi-modal": 5, "video-text": 2, "unifying": 3, "generalizing": 6, "low-dimensional": 5, "dimensional": 25, "pixel": 39, "upon": 18, "request": 15, "extensive": 30, "fashionmnist": 2, "cmu": 2, "mosi": 1, "ict": 1, "-mmmo": 1, "c.5": 2, "discussions": 3, "Upper": 2, "bound": 64, "models": 10, "fully": 33, "noise": 133, "regularizer": 19, "thereby": 2, "carry": 10, "Wu": 14, "scalable": 17, "weakly": 2, "-supervised": 8, "neurips": 14, "dip": 16, "denoising": 11, "super": 11, "par": 2, "treatment": 8, "suit": 10, "cool": 3, "compression": 30, "overfit": 6, "stop": 33, "notnesesary": 1, "introduction": 52, "hand": 56, "angle": 8, "tackled": 2, "underparameterized": 1, "layered": 2, "analyse": 4, "matrix": 119, "256": 4, "512": 6, "relu": 2, "C": 34, "vector": 48, "2.5": 7, "iid": 2, "gaussian": 7, "min_c": 1, "||": 9, "eta": 3, "~": 6, "N": 29, "restriction": 10, "natural": 62, "jpeg": 1, "artifact": 19, "break": 11, "manage": 6, "lbfgs": 5, "fig": 10, "X": 41, "axis": 6, "third": 18, "plotted": 3, "subplots": 2, "fitting": 10, "noiseless": 4, "independently": 16, "able": 59, "fitted": 5, "g(": 3, "~=": 1, "quote": 5, "squared": 11, "mse": 5, "astronaut": 1, "\u03b7": 1, "normalization": 63, "computed": 33, "1x1": 8, "upsampling": 5, "underparametrized": 1, "analog": 1, "\u2192": 2, "n": 32, "typically": 28, "<<": 2, "vice": 5, "versa": 5, "footnote": 5, "512\u00d7512\u00d73": 1, "64": 7, "128": 12, "respective": 10, "unintroduced": 2, "contrast": 37, "subset": 14, "wonder": 25, "distillation": 3, "indicate": 38, "overparameterization": 1, "Main": 4, "critically": 4, "`": 21, "ulyanov": 4, "hardly": 4, "rewrote": 2, "item": 18, "`The": 2, "act": 6, "before": 71, "devote": 3, "limitation": 27, "pertain": 2, "multilayer": 2, "count": 25, "sign": 10, "matrices": 25, "proposition": 2, "k^2": 4, "log": 12, "n_0": 2, "<=": 4, "1/32": 2, "1/20": 1, "side": 27, "restrictive": 5, "logarithmic": 8, "almost": 24, "regime": 40, "throughout": 14, "`in": 1, "default": 6, "d=6": 1, "k=64": 3, "k=128": 1, "25,536": 1, "100244": 1, "k=": 1, "512\\times512\\times3=786,432": 1, "specify": 18, "optimizes": 5, "slow": 21, "adam": 9, "descent": 25, "minor": 69, "``early": 1, "mildly": 1, "dd": 2, "panel": 1, "around": 30, "5000": 1, "50000": 4, "``models": 1, "simulations": 6, "qualitatively": 4, "channel": 10, "wise": 15, "z{ij": 2, "j-th": 1, "column": 16, "i-th": 1, "normalized": 15, "reword": 4, "strictly": 2, "share": 44, "structural": 7, "n.": 9, "compromise": 2, "illustrate": 18, "chance": 10, "unfortunately": 22, "k=6": 1, "-selected": 1, "jupyter": 2, "notebook": 2, "come": 47, "sgd": 68, "hamiltonian": 6, "hgd": 16, "minmax": 8, "game": 33, "minute": 11, "max": 3, "concavity": 2, "bilinearity": 4, "player": 1, "norm": 44, "polyak": 1, "lojasiewicz": 1, "condition": 73, "conclude": 17, "resp.": 2, "sublinear": 3, "stochastic": 55, "gd": 3, "pl": 11, "strong-convex": 1, "bring": 24, "perfectly": 5, "conference": 14, "practical": 68, "huge": 8, "open": 18, "criticizing": 1, "absence": 4, "concave": 11, "takeaways": 1, "sufficient": 23, "meet": 6, "attract": 2, "stationary": 13, "maxima": 1, "equivalent": 26, "CO": 14, "community": 43, "emergent": 1, "frameworks": 5, "\\gamma$": 4, "remarks": 2, "-convex": 1, "linearity": 2, "recently": 21, "extragradient": 4, "vein": 2, "convexity": 13, "alway": 1, "3.2": 33, "proportional": 6, "4.7": 5, "\\alpha^2": 1, "l_h": 5, "^2": 2, "azizian": 3, "wa\u00efss": 2, "tight": 9, "unified": 9, "Whole": 2, "spectrum": 6, "differentiable": 26, "arxiv:1906.05945": 2, "===": 6, "==": 3, "maintain": 16, "grade": 4, "fill": 6, "sufficiently": 25, "bilinear": 14, "unwieldy": 2, "concrete": 8, "aid": 8, "certain": 27, "purely": 9, "pay": 3, "off-diagonal": 2, "jacobian": 8, "min-max": 6, "converge": 21, "amount": 32, "determine": 23, "curvature": 36, "ascent": 1, "critical": 17, "imply": 23, "\\ge": 1, "4L_g": 2, "region": 14, "min-maxes": 1, "phenomenon": 12, "trade": 22, "detect": 14, "eigenvalues": 1, "hessian": 5, "concurrently": 2, "finding": 19, "references": 18, "debate": 7, "large-": 2, "exhibit": 13, "degradation": 18, "budget": 50, "reject": 14, "recognize": 6, "muddier": 1, "job": 8, "mix": 8, "identify": 23, "verify": 24, "previous": 115, "dominate": 10, "scaling": 23, "shallue": 6, "momentum": 16, "inclined": 2, "worth": 24, "resolve": 7, "muddies": 1, "initially": 8, "simultaneously": 15, "degrades": 4, "epoch": 20, "relate": 16, "analogy": 11, "differential": 7, "sde": 7, "perspective": 32, "criticism": 6, "non-gaussian": 2, "short-tailed": 2, "quadratic": 7, "unlike": 14, "arise": 9, "reliable": 9, "draw": 21, "usually": 24, "obey": 4, "theoretically": 21, "down": 19, "language": 43, "modelling": 9, "integrate": 14, "complain": 2, "apologise": 3, "intention": 5, "edit": 10, "ensure": 23, "reflect": 23, "turning": 2, "year": 8, "enhances": 3, "convincing": 37, "crucially": 2, "schedule": 46, "contradict": 2, "temperature": 3, "maximizes": 12, "savp": 12, "auto-encoder": 2, "vae": 83, "Network": 14, "diverse": 18, "deterministic": 31, "blurry": 8, "uncertain": 1, "visually": 7, "appealing": 5, "diversity": 41, "mode": 28, "notoriously": 4, "unstable": 5, "formulate": 2, "-]": 3, "straightforward": 20, "Denton": 10, "fergus": 13, "tulyakov": 1, "offer": 17, "kth": 4, "svg": 24, "vgg": 9, "cosine": 6, "psnr": 3, "ssim": 5, "plausible": 12, "direct": 26, "plausibility": 4, "visual": 27, "thorough": 18, "unsure": 2, "-lp": 1, "fp": 1, "imagine": 18, "implausible": 2, "interactions": 2, "robotic": 11, "arm": 2, "realism": 11, "trade-off": 2, "reruns": 1, "ablation": 32, "fundamental": 11, "tradeoff": 15, "inherent": 9, "ambiguity": 5, "challenge": 36, "eccv": 15, "evaluates": 10, "axes": 6, "neither": 12, "adequately": 2, "variation": 15, "Ebert": 2, "clarification": 20, "systematic": 27, "feed": 18, "-forward": 2, "posterior": 33, "3.5": 4, "component": 50, "temporary": 2, "official": 3, "lpips": 6, "calibrates": 2, "alexnet": 6, "perceptual": 10, "judgements": 7, "realize": 10, "preprocessing": 3, "cropped": 3, "square": 11, "resizing": 2, "discard": 4, "rerunning": 1, "explore": 51, "substantially": 12, "unique": 10, "spatiotemporal": 3, "compounding": 1, "weightings": 7, "kl": 42, "mocogan": 2, "frame-centered": 1, "actor": 8, "struggle": 4, "entity": 36, "personal": 2, "correspondence": 2, "notice": 14, "degenerate": 3, "cyclic": 2, "flicker": 1, "importance": 51, "spectral": 34, "ground": 34, "truth": 28, "movement": 5, "babaeizadeh": 2, "blur": 5, "perfect": 7, "subject": 7, "evaluator": 3, "implausibly": 1, "erase": 1, "push": 12, "bair": 2, "yochai": 5, "blau": 5, "tomer": 5, "Michaeli": 5, "distortion": 22, "Conference": 40, "https://arxiv.org/abs/1711.06077": 3, "roey": 2, "mechrez": 2, "Radu": 2, "timofte": 2, "lihi": 2, "zelnik-manor": 2, "pirm": 4, "super-resolution": 5, "restoration": 16, "workshop": 5, "https://arxiv.org/abs/1809.07517": 2, "dropout": 79, "exploration": 46, "happen": 37, "temporally": 10, "multiplicative": 6, "reward": 91, "consumption": 3, "extension": 26, "alignment": 3, "motivation": 65, "curious": 19, "deploy": 4, "physical": 6, "wear": 1, "tear": 1, "actuators": 3, "explores": 9, "off-policy": 4, "technically": 7, "sound": 16, "glad": 11, "3.3": 26, "nadpex": 18, "flexible": 8, "gradients": 74, "seed": 9, "besides": 29, "hierarchy": 23, "seamlessly": 1, "-policy": 5, "Bernoulli": 8, "derive": 25, "heuristic": 18, "aligns": 1, "end-to": 17, "orthogonal": 17, "direction": 71, "attack": 170, "investigate": 29, "drag": 1, "simulator": 6, "authentic": 1, "ultimate": 2, "safe": 6, "flexibility": 5, "experience": 21, "sampler": 4, "data-efficient": 1, "auto-correlated": 1, "plappert": 3, "Exploration": 2, "tassa": 1, "synthesis": 3, "stabilization": 1, "behavior": 33, "trajectory": 5, "iros": 1, "2012": 5, "Clavera": 1, "meta-learning": 57, "Control": 3, "lillicrap": 1, "xu": 12, "meta-policy": 1, "icml": 27, "maximally": 3, "expressive": 11, "hypergraphs": 1, "equivariant": 13, "corresponds": 15, "partitioning": 1, "index": 15, "-set": 1, "tensors": 1, "graphs": 54, "identical": 30, "hyper-graphs": 1, "battaglia": 2, "18": 14, "hartford": 17, "translation": 48, "equivariance": 12, "group": 34, "strict": 7, "subgroup": 2, "flawed": 8, "q": 91, "quantify": 12, "power": 32, "basis": 19, "informative": 22, "exchangeable": 10, "construction": 21, "reviewer1": 1, "wording": 3, "merely": 14, "outside": 9, "scope": 15, "symmetry": 4, "strongly": 13, "--------------------------------------------------------------------------------------------------------------------------------": 5, "survey": 4, "collection": 4, "yanardag": 1, "vishwanathan": 1, "origin": 1, "graph": 155, "usage": 9, "skill": 29, "discovery": 11, "VIC": 1, "diayn": 18, "unconditioned": 3, "tie": 9, "execute": 5, "elicit": 1, "position": 18, "misc": 27, "relative": 23, "empowerment": 5, "wherein": 2, "maximize": 12, "s_t": 3, "s_": 2, "{t": 3, "modifying": 1, "s_i": 8, "amenable": 9, "maximization": 4, "hear": 7, "I(": 2, "s_c": 4, "apart": 8, "vime": 7, "s_i/s_c": 1, "greatly": 12, "omit": 5, "ideally": 5, "previously": 29, "suite": 6, "seaquest": 1, "discern": 1, "weaken": 1, "prominently": 1, "downplays": 1, "needing": 1, "variations": 10, "backwards": 1, "s_i/": 1, "non-trivial": 12, "sort": 7, "consideration": 14, "environmental": 1, "create": 20, "pass": 20, "acceptance": 15, "view": 32, "sates": 1, "receive": 7, "MI": 25, "efficiently": 16, "transition": 19, "estimating": 14, "newly": 12, "gazebo-": 1, "https://youtu.be/l5kayjwwu70?t=104": 2, "icm": 1, "automatically": 10, "iterating": 2, "combinations": 16, "afterwards": 1, "user": 6, "world": 28, "optimised": 2, "rollouts": 1, "imagination": 8, "impressive": 19, "efficiency": 22, "analytic": 10, "trajectories": 20, "optional": 2, "dependent": 23, "endpoints": 2, "critique": 5, "latenby": 2, "###": 8, "##": 12, "long-horizon": 6, "propagating": 10, "solves": 7, "hyper": 8, "dreamer": 40, "200": 14, "300": 5, "20": 16, "30": 8, "50": 14, "suboptimal": 2, "hinting": 2, "insufficient": 5, "multi-step": 10, "collision": 1, "equilibrium": 9, "upright": 1, "pendulum": 1, "rotate": 4, "cheetah": 3, "front": 6, "foot": 2, "flip": 3, "fall": 14, "non-euclidean": 8, "motivate": 48, "geometry": 7, "euclidean": 14, "riemannian": 9, "manifolds": 5, "sacrifising": 1, "formulae": 2, "gyrovector": 5, "formalization": 4, "hyperbolic": 22, "formalism": 5, "interpolate": 10, "smoothly": 4, "flipping": 2, "poincare": 7, "reagarding": 1, "unification": 1, "past": 15, "derivations": 7, "journal": 2, "rigorous": 11, "competitive": 21, "rise": 9, "overcome": 5, "ameliorated": 3, "formal": 15, "compressed": 6, "kindly": 9, "curvatures": 6, "together": 22, "variances": 2, "tractable": 6, "accurate": 13, "invertible": 3, "appending": 1, "compatible": 2, "ABC": 5, "concerning": 4, "gaussians": 5, "illustration": 10, "differentiability": 2, "softwax": 1, "inverse": 16, "kinematics": 1, "reasonably": 13, "medical": 3, "inn": 10, "predictor": 2, "calibration": 7, "suppose": 12, "astrophysics": 3, "tackle": 14, "toy": 31, "real-world": 24, "constructive": 29, "hot": 9, "encoding": 21, "regress": 3, "invert": 2, "x-samples": 1, "posteriors": 10, "science": 7, "quantitative": 40, "distributions": 60, "emphasize": 28, "condense": 1, "full": 50, "wirkert": 1, "Robust": 4, "real-time": 2, "physiological": 1, "megapixel": 1, "multispectral": 1, "monte": 2, "carlo": 2, "forest": 1, "regression": 26, "International": 24, "Journal": 8, "assisted": 1, "radiology": 1, "surgery": 1, "https://link.springer.com/article/10.1007/s11548-016-1376-5": 1, "upload": 8, "font": 6, "convenience": 2, "half": 7, "shorten": 2, "accordingly": 12, "intertwined": 1, "illuminate": 1, "memorization": 18, "detecting": 5, "largescale": 1, "imagenet22": 1, "modern": 12, "Paper": 8, "touch": 3, "data-augmentation": 5, "explicit": 21, "anonymous": 4, "mackay": 4, "textbook": 2, "memorize": 14, "labelling": 3, "doo": 2, "mistaken": 1, "extrapolate": 1, "couple": 8, "caveats": 1, "proportionality": 1, "increasing": 2, "representational": 3, "shallow": 12, "book": 4, "chapter": 1, "44": 2, "radford": 1, "Neal": 2, "mlp": 9, "complexity": 92, "width": 12, "characteristic": 12, "effective": 49, "degree": 16, "become": 40, "slight": 3, "oxymoron": 2, "premise": 4, "force": 7, "presume": 2, "closeness": 9, "frequently": 5, "reconstruction": 37, "oppose": 10, "coherent": 4, "worthy": 2, "swiftly": 1, "high-": 17, "decide": 13, "yes": 32, "picture": 13, "accurately": 8, "re-organize": 2, "queries": 1, "recognise": 1, "unperturbed": 2, "60\\": 2, "90": 6, "spot": 5, "along": 31, "-->": 7, "scenarii": 1, "plural": 1, "scenario": 36, "non-standard": 1, "nor": 13, "quantity": 6, "remember": 10, "rough": 2, "...]": 4, "membership": 6, "deserve": 3, "implicit": 17, "privacy": 1, "aspect": 25, "capability": 12, "qualitative": 23, "upper-bound": 5, "acknowledge": 21, "confuse": 5, "opposite": 6, "90\\": 1, "robustifying": 1, "defend": 5, "lda": 5, "last-": 1, "ensemble": 41, "clean": 9, "covariance": 17, "determinant": 2, "impose": 6, "spite": 5, "Lee": 13, "18a": 2, "ma": 4, "intent": 2, "incomplete": 10, "proofs": 10, "odd": 6, "backward": 14, "patrini": 3, "fair": 28, "disagree": 11, "densenet": 2, "cifar10": 13, "60": 7, "53.34": 1, "74.72": 1, "resnets": 7, "ddgc": 7, "60.05": 1, "71.38": 1, "bootstrap": 4, "boost": 9, "class-conditional": 4, "uniform": 10, "convinced": 7, "relevance": 7, "dozen": 1, "defence": 4, "ddgd": 1, "white": 21, "box": 45, "denset": 1, "oblivious": 1, "mcd": 4, "arguably": 10, "attacker": 7, "classifiers": 40, "\u2026": 25, "mild": 1, "White": 2, "Wen": 3, "yandong": 1, "European": 4, "Springer": 6, "cham": 4, "Wan": 2, "weitao": 1, "rethinking": 4, "Proceedings": 12, "3,4": 3, "abnormal": 1, "2.1": 13, "anonreviewer": 1, "complementary": 7, "co-teaching": 5, "black": 24, "y.": 17, "K.": 13, "Li": 13, "Z.": 6, "qiao": 1, "W.": 11, "Zhong": 1, "T.": 18, "chen": 9, "J.": 40, "Framework": 1, "out-of-distribution": 1, "samples": 3, "attacks": 3, "nips": 23, "x.": 7, "B.": 10, "Wang": 11, "erfani": 1, "s.m.": 2, "wijewickrema": 1, "houle": 1, "m.e.": 1, "schoenebeck": 1, "G.": 7, "song": 2, "D.": 19, "Bailey": 1, "characterizing": 1, "subspaces": 1, "intrinsic": 14, "bo": 2, "quanming": 2, "yao": 6, "xingrui": 2, "yu": 3, "gang": 2, "niu": 3, "miao": 2, "weihua": 2, "Hu": 15, "ivor": 2, "tsang": 3, "masashi": 3, "sugiyama": 4, "anonreviewer2": 1, "backdoor": 17, "differently": 8, "approches": 2, "centralised": 2, "fault": 1, "tolerance": 3, "name": 28, "byzantine": 7, "persistent": 3, "aggregation": 10, "federated": 5, "Fung": 1, "pillutla": 1, "bypassed": 3, "appreciable": 1, "interpret": 18, "poisoning": 9, "kind": 24, "fine-": 3, "grained": 4, "weakness": 21, "rfa": 4, "pillulata": 1, "grant": 1, "detects": 1, "nuanced": 1, "wort-case": 1, "blanchard": 3, "draco": 2, "sysml": 1, "bulyan": 9, "El": 2, "Mhamdi": 2, "signsgd": 2, "bernstein": 1, "dba": 14, "mechanism": 29, "krum": 6, "multi-krum": 4, "centralized": 16, "tolerate": 2, "worker": 4, "n-1": 1, "non-byzantine": 2, "n-f": 1, "poisoned": 1, "n=10": 2, "f=3": 2, "loan": 9, "n=12": 1, "f=4": 2, "multi-": 7, "m": 49, "m=n-f": 1, "tiny": 5, "-imagenet": 2, "poison": 3, "tiny-imagenet": 2, "behave": 6, "benign": 5, "client": 1, "malicious": 2, "succeed": 5, "\u2013resilient": 1, "n=15": 1, "n=20": 1, "worthwhile": 8, "Little": 1, "Baruch": 1, "manipulates": 1, "mitigate": 8, "defens": 2, "stricter": 3, "proportion": 3, "foolsgold": 3, "assign": 12, "extreme": 9, "krum-based": 1, "inject": 2, "backdoors": 1, "four": 14, "a.6": 3, "stream": 10, "heavy": 8, "hitters": 2, "oracle": 30, "return": 8, "provably": 3, "f_p": 2, "incorrect": 8, "minimise": 1, "resource": 13, "firstly": 7, "decomposes": 2, "abstraction": 1, "skip-gram": 1, "undergraduate": 1, "decomposing": 2, "Concerns": 4, "imbalance": 4, "machine": 62, "absent": 4, "635": 1, "judge": 15, "movie": 2, "news": 1, "article": 11, "tags": 1, "broad": 13, "active": 30, "meanwhile": 6, "hypothesis": 22, "oversampling": 1, "over-fitting": 1, "b)": 11, "smote": 3, "borderline": 4, "pairwise": 3, "burden": 7, "hybrid": 4, "learner": 7, "notion": 17, "2400": 1, "prob2": 2, "vecone": 3, "annotation": 16, "relational": 18, "edge": 28, "node-level": 8, "graph-": 6, "classifications": 4, "velic\u030ckovic\u0301": 1, "schlichtkrull": 10, "velic\u030ckovic": 1, "\u0301": 1, "attentions": 3, "convince": 6, "absolute": 5, "mutag": 14, "statistical": 27, "kernels": 14, "188": 1, "mutagenic": 3, "aromatic": 1, "heteroaromatic": 1, "nitro": 1, "compound": 5, "chemical": 1, "gram-": 1, "bacterium": 1, "salmonnella": 1, "typhimurium": 1, "cast": 3, "veli\u010dkovi\u0107": 1, "concede": 2, "modification": 13, "trainable": 7, "generalise": 4, "transformer-style": 2, "dot": 7, "gaan": 3, "gated": 15, "non-relational": 2, "investigation": 34, "tox21": 6, "aucs": 3, "wirgat": 3, "0.838": 3, "+/-": 9, "0.007": 6, "argat": 3, "0.837": 3, "optimisation": 3, "rgcn": 18, "sum-style": 3, "rgat": 8, "counterpart": 1, "unexpected": 1, "gat": 11, "style": 18, "anticipate": 1, "node-degree": 2, "route": 2, "who": 8, "dot-product": 3, "pursue": 4, "tud": 1, "absolutely": 2, "dl-learner": 1, "leveraged": 2, "rdf2": 1, "ristoski": 1, "Paulheim": 1, "rdf": 8, "340": 2, "molecule": 9, "triples": 1, "d1": 6, "hasatom": 1, "d1_1": 2, "hasBond": 1, "bond1": 2, "hasstructure": 1, "ring_size_6-1": 1, "atom": 1, "bond": 3, "viewable": 1, ".owl": 1, "locate": 2, "ismutagenic": 1, "constitute": 2, "node-classification": 1, "unlabelled": 17, "comprising": 1, "batches": 14, "https://github.com/smartdataanalytics/dl-learner/tree/develop/examples/mutagenesis": 1, "https://www.semanticscholar.org/paper/rdf2vec%3a-rdf-graph-embeddings-for-data-mining-ristoski-paulheim/844d502387a3996f167b04e2e83117c30c22e752": 1, "pre-train": 5, "quantized": 6, "-stage": 4, "cpc": 4, "cross-entropy": 8, "infonce": 1, "cross": 7, "gumbel": 8, "codebook": 7, "quantization": 31, "seq": 1, "tokens": 5, "phonemes": 2, "quantizing": 1, "raw": 7, "phoneme": 2, "log-mel": 3, "filterbanks": 1, "wer": 1, "ler": 1, "pipeline": 7, "n-gram": 2, "lm": 3, "k-means": 7, "cleverly": 1, "span-bert": 1, "engineering": 17, "surprisingly": 4, "exchangeability": 1, "permutations": 1, "equivalently": 1, "lose": 3, "bipartite": 5, "diagonal": 22, "self": 17, "transpose": 2, "incoming": 2, "outgoing": 1, "artificially": 1, "exploit": 11, "framing": 2, "approximating": 6, "familiar": 10, "gcn": 14, "kipf": 8, "graphsage": 2, "Hamilton": 2, "Monti": 2, "etc..": 1, "restrict": 12, "strengthen": 8, "favour": 2, "symmetric": 7, "zero": 30, "constrain": 18, "x^t": 5, "coincide": 2, "q:\u201d": 2, "etc.": 23, "universality": 2, "Welling": 15, "pooling": 35, "frequency": 9, "operation": 54, "satisfying": 3, "shift": 31, "equivalence": 5, "anti-aliasing": 9, "1d": 5, "2d": 7, "dft": 4, "cut": 7, "frequencies": 2, "fft": 1, "auto": 2, "differentiation": 3, "desnet": 1, "subsets": 8, "imagenet": 50, "computer": 9, "transformation": 17, "lay": 5, "Visual": 6, "ryu": 1, "propositions": 1, "development": 12, "sorry": 8, "f-pooling": 28, "shift-equivalence": 1, "operable": 1, "imaginary": 11, "zero-padding": 1, "nonconvex": 4, "trace": 5, "tv": 6, "fidelity": 6, ",2": 3, "digitals": 1, "rich": 2, "texture": 3, "Kai": 1, "wangmeng": 1, "zuo": 1, "shuhang": 1, "gu": 3, "lei": 1, "denoiser": 2, "2808-2817": 1, "jiawei": 3, "jin-shan": 1, "Pan": 1, "wei-sheng": 1, "lai": 1, "rynson": 1, "Lau": 1, "ming-hsuan": 1, "Yang": 9, "non-blind": 2, "deconvolution": 1, "6969-6977": 1, "srcnn": 1, "srgan": 1, "implicitly": 10, "criticize": 1, "F.": 11, "underestimate": 2, "damage": 2, "badly": 4, "handcrafted": 5, "data-driven": 4, "amortized": 4, "proximal": 7, "apo": 35, "lambda": 37, "gauss-newton": 1, "General": 2, "gauss": 1, "Newton": 1, "Natural": 5, "meta-objective": 2, "inner": 7, "workings": 1, "bregman": 1, "optimizers": 24, "adagrad": 19, "-fly": 1, "population": 7, "arbitrarily": 13, "Adam": 34, "adam-": 1, "rmsprop": 16, "manual": 12, "pbt": 6, "H": 14, "perturbation": 20, "perturb": 3, "multiplying": 2, "0.8": 4, "exploiting": 4, "member": 1, "resnet34": 7, "resampling": 1, "jump": 9, "wall": 10, "clock": 11, "evolutionary": 12, "perturbations": 6, "net": 16, "i.e": 4, "manifold": 31, "globally": 3, "meta": 28, "rosenbrock": 6, "nearly": 3, "1e": 10, "-3": 2, "-5": 1, "span": 18, "density": 18, "CDN": 15, "parametrises": 1, "infinite": 4, "mixtures": 1, "generalising": 1, "traditional": 23, "finite": 13, "mdn": 2, "realise": 1, "probabilistically": 1, "variate": 3, "mvg": 2, "hypernetwork": 2, "straightforwardly": 2, "reparametrization": 3, "trick": 29, "agnostic": 2, "predictive": 12, "notmnist": 4, "generalisation": 10, "cdn": 14, "extensively": 6, "minibatching": 2, "datapoint": 3, "theta|x": 1, "vib": 8, "visualised": 1, "marginal": 21, "multimodality": 1, "hint": 1, "specialise": 1, "log-likelihood": 4, "priors": 18, "influential": 1, "capturing": 5, "aleatoric": 5, "epistemic": 3, "mnf": 3, "k-fac": 6, "kfla": 4, "lambdas": 2, "overconfident": 3, "underperform": 1, "tau": 7, "optimises": 1, "whereas": 15, "bottleneck": 18, "VI": 8, "bhn": 3, "dependency": 24, "unscalable": 1, "naively": 3, "clearness": 1, "mini-batching": 1, "availability": 3, "batched": 1, "algebra": 6, "pytorch": 6, "torch.bmm": 1, "broadcasting": 1, "semantics": 3, "mixing": 11, "multivariate": 10, "normal": 17, "-variate": 2, "pointer": 3, "legends": 2, "accessible": 2, "heteroscedastic": 6, "visualized": 5, "1/2*N": 2, "y=0": 1, "y=1": 1, "..": 5, "\\theta": 36, "shrinking": 1, "naturally": 7, "0.97": 3, "ood": 8, "curiously": 2, "prime": 1, "\\tau": 2, "0.01": 6, "kfac": 1, "unchanged": 6, "louizos": 5, "christos": 3, "Max": 6, "structured": 3, "Machine": 17, "kingma": 5, "diederik": 2, "P.": 9, "Tim": 2, "salimans": 2, "reparameterization": 15, "multi-task": 6, "vqa": 18, "solver": 7, "program": 4, "progressive": 2, "recursive": 3, "gather": 6, "soft-attention": 1, "infer": 19, "effectiveness": 21, "examing": 1, "interpretable": 7, "canonical": 4, "overstated": 1, "transmitter": 2, "receiver": 2, "o_k": 2, "m_k": 2, "q_k": 1, "v_k": 1, "r_{k": 1, "->n}(": 1, "s^t": 1, "specifying": 2, "meaning": 18, "softly": 1, "q_rel": 2, "backprob": 1, "cider": 1, "captioning": 5, "109": 1, "108": 1, "coco": 4, "80": 10, "category": 20, "stoa": 2, "split": 9, "et.al": 3, "49.39": 1, "test-": 2, "dev": 2, "51.62": 3, "certainly": 10, "convey": 8, "showcase": 5, "pmn": 3, "host": 2, "increasingly": 2, "gently": 1, "arrow": 1, "n-dimensional": 2, "a.4": 7, "sampled": 23, "Cide": 1, "rcnn": 1, "background": 15, "leverages": 7, "54.39": 1, "52.12": 1, "regularized": 7, "Kim": 9, "concurrent": 4, "Lu": 3, "train+": 1, "val": 5, "Count": 1, "answering": 2, "Language": 3, "non-additive": 3, "utility": 8, "choquet": 15, "integral": 14, "non": 6, "additive": 5, "intermediate": 19, "fuzzy": 1, "integration": 6, "remote": 1, "sensing": 1, "derek": 1, "Anderson": 1, "rnn": 51, "doubt": 8, "mimics": 1, "fuse": 1, "caffenet": 1, "googlenet": 1, "contrary": 3, "automatic": 14, "summarization": 5, "inspire": 12, "1c": 2, "u_i": 2, "g_i": 2, "integrals": 1, "aggregations": 2, "mae": 1, "punish": 1, "severe": 4, "abbreviated": 2, "rcn": 1, "deepsets": 3, "prone": 1, "plasticity": 28, "Miconi": 3, "dynamically": 5, "modulating": 2, "accomplish": 4, "timestep": 2, "dynamic": 12, "eligibility": 3, "modulation": 19, "strikingly": 2, "non-plastic": 6, "plastic": 8, "non-modulated": 6, "cue-reward": 3, "association": 5, "cues": 3, "9x9": 1, "water": 6, "maze": 11, "motivates": 8, "hypothesize": 4, "dopamine": 3, "drive": 12, "animal": 9, "convincingly": 4, "modulate": 9, "citation": 12, "zaremba": 7, "perplexity": 9, "confusion": 12, "love": 6, "melis": 3, "solid": 13, "zero-sequences": 2, "contrived": 1, "strike": 3, "confounding": 3, "lock": 2, "stimulus": 10, "high-dimensional": 2, "2b": 1, "Nature": 3, "cap": 2, "appraisal": 1, "document": 3, "re": 16, "re-ran": 1, "warrant": 5, "altogether": 3, "desirable": 20, "insurmountable": 2, "massive": 6, "zero-inputs": 1, "timing": 3, "unpredictable": 2, "forcing": 2, "pre-programmed": 1, "convenient": 2, "non-target": 1, "distractor": 1, "credit": 2, "schema": 3, "facilitate": 4, "terrible": 1, "maneuver": 1, "plane": 3, "optionally": 1, "redrawn": 1, "wrt": 11, "engineer": 1, "complaint": 1, "scientifically": 1, "feat": 1, "suspect": 7, "spatial": 9, "limb": 2, "next-contribution": 1, "widely": 16, "track": 10, "coreference": 18, "location": 36, "impressionistic": 2, "disambiguated": 2, "disamguation": 2, "advertise": 4, "prefixes": 5, "bottomline": 1, "point-by-": 1, "======": 3, "ablations": 2, "co-reference": 3, "rows": 1, "kg": 3, "mrc": 7, "g_t": 6, "g_{": 2, "t": 35, "disambiguation": 2, "duplication": 5, "enforce": 10, "inter-graph": 4, "gt": 1, "intra-graph": 4, "co-ref": 3, "g_": 1, "leaf": 9, "g_{t": 1, "old": 10, "preserves": 1, "store": 7, "\u2019.": 1, "duplicates": 4, "surface": 17, "1st": 4, "5th": 1, "para": 2, "self-attention": 5, "=====": 3, "continue": 5, "repetitive": 1, "glance": 3, "usefulness": 14, "repeat": 12, "nutshell": 1, "residual": 17, "propagate": 8, "diverge": 3, "propagation": 48, "e_t": 1, "\\lambda_t": 1, "co_2": 4, "reality": 2, "remedy": 3, "re-use": 1, "====": 2, "comprise": 1, "entire": 10, "dalvi": 1, "pro-global": 1, "pro-local": 1, "datapoints": 6, "iteratively": 2, "confident": 7, "heuristics": 7, "irrelevant": 4, "concise": 4, "spoil": 1, "spoiled": 1, "researches": 2, "underline": 4, "regularisation": 4, "2.2": 12, "sntg": 3, "play": 19, "thresholded": 1, "0.5": 12, "exclude": 4, "criterion": 19, "intuitions": 6, "tempens": 2, "reproducibility": 7, "sensitive": 13, "non-animals": 1, "splits": 9, "behind": 9, "methodology": 10, "unrelated": 3, "resemble": 7, "Sections": 5, "insure": 1, "p.2": 1, "sigmoid": 22, "normally": 4, "multiclass": 4, "dominates": 5, "suddenly": 3, "until": 13, "0.9999": 2, "0.99999": 1, "10^": 1, "nonanimal": 1, "==>": 2, "6.3": 2, "considerable": 4, "correlation": 28, "growth": 18, "saturates": 7, "settle": 2, "cross-validation": 7, "slowly": 2, "exceed": 9, "gradually": 3, "33": 2, "27": 2, "rearrange": 2, "=>": 16, "Animal": 1, "obscure": 2, "categorized": 2, "analysing": 1, "data-sets": 1, "binarization": 1, "ad-hoc": 2, "2013": 10, "coordinate": 3, "ex": 2, "-0.5": 2, "1.5": 1, "0.25": 2, "9": 20, "re-initializing": 2, "retrain": 1, "saturated": 1, "placticity": 1, "neuro": 3, "parameterizing": 1, "hebbs": 1, "retroactive": 3, "delay": 4, "incorporation": 1, "performaed": 1, "neuro-modulation": 1, "cue": 1, "exemplifies": 1, "experimentation": 8, "clipping": 1, "neat": 2, "feed-forward": 2, "1.3": 4, "hardy": 2, "statistically": 10, "architectural": 10, "enthusiasm": 1, "curiosity": 31, "augmented": 6, "neuromodulation": 6, "cue-response": 1, "react": 1, "reaction": 1, "impression": 3, "adjective": 2, "regards": 8, "**": 52, "neuromodulated": 5, "else": 7, "workhorse": 1, "ease": 6, "drop-": 2, "replacement": 4, "viterbi-based": 10, "usual": 5, "viterbi": 16, "encoded": 8, "codeword": 4, "decoded": 2, "trellis": 1, "1/k": 1, "inputing": 1, "footprint": 3, "k/n": 1, "format": 5, "encode": 10, "nonzero": 7, "separately": 6, "double": 9, "storage": 1, "csr": 1, "csc": 1, "nonzeros": 1, "sequential": 9, "decompressers": 1, "s_1*codeword": 1, "_1": 1, "s_2*codeword2": 1, "cdot": 1, "scalar": 6, "codewords": 6, "parse": 3, "seemingly": 8, "runtime": 10, "decompressor": 3, "compressability": 2, "outline": 7, "illustrative": 2, "grammatical": 10, "proofread": 2, "by-": 3, "pruning": 17, "70": 1, "95": 2, "simulated": 4, "pes": 5, "10000": 10, "cycle": 4, "simulation": 13, "6c": 7, "parallel": 11, "decode": 9, "40": 7, "prepare": 4, "parallelized": 3, "prune": 2, "quantize": 2, "pruned": 7, "alternate": 13, "retraining": 11, "reconstructed": 3, "parallelization": 2, "sparse-": 3, "to-": 7, "conversion": 3, "VDs": 1, "dongsoo": 3, "daehyun": 3, "ahn": 3, "taesu": 3, "pierce": 3, "i.": 12, "chuang": 3, "Jae-Joon": 3, "representations": 13, "jianqiang": 3, "zouchen": 3, "Lin": 6, "wenwu": 3, "qu": 4, "Yuanbin": 3, "cao": 3, "zhirong": 3, "hongbin": 3, "zha": 3, "alternating": 3, "multi-bit": 4, "set-up": 1, "proposal": 9, "normalisation": 1, "sn": 14, "margin-based": 2, "justify": 13, "conv": 6, "strides": 2, "horizontal": 3, "margin": 25, "briefly": 12, "bartlett": 7, "epsilons": 3, "scales": 11, "5.3": 6, "unconvincing": 5, "0.1": 11, "batch-": 2, "regularsisers": 1, "wth": 1, "point-to": 3, "kernel": 12, "deconv": 1, "division": 1, ".\u2019": 1, "approximation": 55, "a.1": 4, "relabel": 1, "5.1": 5, "phi": 14, "Theorems": 6, "1-": 3, "norm_inf": 2, "norm_2": 2, "bounded": 10, "redo": 1, "visualization": 6, "fgm": 4, "pgm": 3, "wrm": 2, "regulariser": 1, "originally": 6, "spectrally": 4, "a.2": 3, "few-shot": 30, "transductive": 7, "merit": 11, "lie": 6, "drawbacks": 4, "put": 19, "tpn": 7, "inferior": 4, "miniimagenet": 5, "tadam": 7, "oreshkin": 3, "58.5": 2, "76.7": 2, "amongst": 5, "respond": 9, ">>>": 8, "mere": 3, "adaptively": 3, "learnable": 20, "relieve": 1, "snail": 1, "55.71": 1, "68.88": 1, "adaresnet": 1, "56.88": 1, "71.94": 1, "k-shot": 4, "56.30": 1, "73.90": 1, "58.50": 1, "76.70": 1, "--------------------------------------------------------": 5, "59.46": 1, "75.65": 1, "episodic": 6, "1.44": 1, "1.25": 1, "respectively": 16, "grow": 4, "3.20": 1, "1.68": 1, "High": 3, "tieredImagenet": 1, "4.68": 1, "2.87": 1, "Finn": 2, "chelsea": 1, "pieter": 2, "Abbeel": 3, "Sergey": 2, "Levine": 2, "snell": 1, "Jake": 2, "Kevin": 2, "swersky": 2, "Richard": 4, "zemel": 1, "prototypical": 10, "flood": 1, "sung": 1, "yongxin": 1, "Mishra": 1, "nikhil": 1, "attentive": 3, "meta-learner": 5, "Munkhdalai": 1, "tsendsuren": 1, "rapid": 1, "conditionally": 2, "shifted": 1, "neurons": 8, "baue": 1, "Matthias": 2, "probabilistic": 14, "arxiv.": 1, "b.n.": 1, "lacoste": 1, "A.": 24, "rodriguez": 1, "Task": 1, "Zhou": 4, "denny": 2, "2004": 3, "exclusivity": 3, "rare": 4, "event": 9, "inductive": 7, "biases": 12, "ml": 12, "mle": 4, "-nn": 1, "guess": 10, "classifying": 2, "n|t": 3, "willing": 4, "reproduce": 9, "=====================================================": 1, "supportive": 2, "stay": 6, "observing": 3, "corpus": 10, "\\text": 4, "t}": 11, "frac": 1, "{#": 2, "}}": 2, "}$": 6, "timepoint": 1, "assigns": 1, "replicate": 2, "sincerely": 5, "stimulate": 3, "low-data": 1, "bigan": 3, "rotnet": 3, "deepcluster": 3, "successful": 14, "-designed": 1, "descriptors": 1, "sift": 2, "lowe": 1, "1999": 2, "hog": 2, "dalal": 1, "triggs": 1, "2005": 1, "reminiscent": 1, "characterization": 2, "window": 6, "vast": 3, "predates": 1, "deep-": 1, "era": 1, "5600": 1, "citations": 8, "Google": 3, "scholar": 1, "Bruno": 1, "olshausen": 2, "emergence": 3, "-cell": 1, "receptive": 4, "1996": 4, "16x16": 1, "ten": 6, "512x512": 1, "scene": 10, "conv1": 4, "coding": 4, "engage": 2, "scratch": 12, "grad": 1, "annotations": 5, "mallat": 2, "scattering": 11, "oyallon": 2, "existence": 8, "detract": 1, "self-supervision": 9, "heavily": 7, "researched": 1, "send": 2, "cautionary": 1, "ingest": 1, "million": 11, "touted": 1, "regardless": 6, "low-level": 4, "conv2": 1, "onwards": 1, "olshausens": 1, "Bruna": 4, "tpami": 2, "iccv": 4, "cycle-consistency": 1, "omniglot": 9, "substantial": 13, "meta-revgrad": 5, "idt": 2, "revMap": 2, "maml": 27, "pn": 1, "<->": 2, "-m.": 1, "fashion": 3, "l_da": 2, "meta-test": 5, "appreciating": 1, "guidance": 2, "invariance": 12, "achieving": 1, "mapping": 38, "image-to-image": 5, "constrains": 1, "non-gan": 1, "styling": 2, "identity": 9, "designing": 3, "tricky": 7, "meta-train": 2, "Dramatic": 1, "meta-training": 5, "l_gan": 1, "l_cycle": 1, "shu": 1, "R.": 23, "bui": 1, "h.h.": 1, "narui": 1, "ermon": 1, "dirt": 1, "-t": 2, "vectorial": 1, "triplet": 29, "similiarity": 2, "approximately": 13, "np": 12, "substantiate": 4, "tackles": 9, "choosen": 1, "realizable": 2, "questionable": 6, "misses": 3, "respectfully": 2, "existing": 3, "ordinal": 25, "100000": 1, "diverting": 1, "subsampling": 1, "invoke": 2, "oracles": 5, "landmark": 1, "sat": 1, "facet": 1, "circumstance": 3, "generic": 16, "toolboxes": 2, "clustering": 4, "reduction": 12, "resort": 2, "relaxations": 3, "toolbox": 1, "informs": 1, "solvers": 4, "omega": 6, "conflict": 5, "items": 1, "caveat": 1, "representationless": 1, "crowdsourcing": 3, "reserve": 2, "adaptivedropout": 1, "subnetworks": 1, "regularizers": 15, "stabilizing": 2, "pose": 15, "positively": 2, "occur": 11, "Interpretation": 2, "absorb": 1, "acquisition": 1, "boon": 1, "grounding": 1, "trust": 3, "somewhere": 5, "collect": 14, "usable": 1, "on-": 2, "interpretability": 13, "composibility": 1, "prerequisites": 1, "reusing": 1, "luckily": 1, "modeled": 3, "Florensa": 1, "hausman": 1, "embedding": 4, "transferable": 1, "skills": 1, "\\sigma": 10, "\\omega": 9, "surprised": 5, "aligning": 2, "success": 31, "S": 7, "paliwal": 2, "brief": 12, "mining": 4, "rewrites": 3, "L2": 8, "manipulate": 8, "L$": 1, "l^\\prime": 1, "counteracted": 1, "counteract": 1, "noisiness": 1, "rewarded": 1, "unfamiliarity": 1, "series": 14, "step-by-step": 1, "experimentations": 1, "rl": 33, "count-": 4, "rf": 5, "idfs": 3, "continuously": 2, "sweet": 3, "r1": 16, "parallelize": 1, "pseudo-count": 3, "party": 10, "Breakout": 1, "extrinsic": 25, "instability": 5, "stem": 6, "continually": 1, "non-stationary": 1, "disappearing": 1, "excellent": 3, "tradeoffs": 1, "set-structured": 1, "accumulator": 4, "gating": 6, "sensible": 8, "emphasis": 8, "inherently": 3, "accumulators": 2, "accumulate": 5, "producing": 1, "mistrust": 1, "transparent": 1, "streaming": 1, "hsu": 4, "19": 4, "packet": 1, "flow": 8, "occurrences": 2, "validating": 1, "structure2vec": 1, "twofold": 2, "wide": 17, "commonly": 12, "multi-label": 2, "meantime": 1, "struc2vec": 1, "cne": 13, "incredulous": 1, "conceptual": 7, "advance": 9, "invite": 5, "team": 3, "spend": 4, "mcts": 10, "allowance": 1, "thousand": 8, "elaboration": 3, "machinery": 2, "math": 23, "spell": 3, "1e9": 3, "competent": 1, "room": 4, "330": 1, "50x50=2500": 1, "performing": 1, "sv2p": 3, "2e6": 1, "hour": 7, "d4": 3, "pg": 3, "24": 3, "billion": 1, "6500": 1, "external": 3, "gregor": 1, "derivative": 11, "the-art": 1, "correctness": 3, "applicability": 9, "belief": 7, "deliver": 2, "optimizing": 16, "satisfies": 8, "smoothness": 11, "92": 2, "reparametrizable": 2, "bernoulli(": 1, "z>p": 1, "z": 104, "logistic": 2, "cdf": 14, "smooth": 19, "missleading": 1, "elbo": 14, "occluding": 1, "integrating": 1, "non-negative": 2, "log-normal": 1, "rep": 23, "q^": 3, "-1": 4, "pseudo-random": 1, "fig.1": 1, "sec": 26, "7.1": 1, "hereafter": 1, "non-differentiable": 5, "piece": 8, "Schulman": 7, "heess": 4, "weber": 1, "limitations": 1, "equations": 5, "differentiating": 3, "leibnitz": 1, "q_gamma(": 2, "corollary": 3, "rv": 28, "internal": 8, "multi-layer": 5, "7.2": 6, "b.4": 3, "assist": 2, "independency": 1, "marginalizing": 1, "non-reparameterizable": 5, "inserting": 1, "enlarge": 3, "notations": 8, "harmony": 1, "q(": 4, "e_{q": 2, "z|": 14, "propto": 1, "tunable": 5, "1,2": 7, "readily": 6, "nonnegative": 2, "Ruiz": 2, "M.": 22, "titsias": 6, "Blei": 2, "pp.": 18, "460\u2013468": 1, "C.": 14, "naesseth": 1, "linderman": 1, "arxiv:1610.05683": 1, "y^": 3, "activate": 2, "chain": 26, "RV": 2, "grep": 1, "rsvi": 1, "reparametrize": 1, "generalizes": 5, "scg": 4, "reinforce": 21, "generalizability": 2, "grathwohl": 4, "preferable": 1, "x_j": 4, "e_x_j": 2, "|z": 3, "inpainting": 15, "ivanov": 4, "pseudo": 5, "practically": 5, "imputes": 1, "Ground": 2, "Truth": 2, "down-stream": 2, "encoder": 40, "backbone": 11, "formulations": 2, "patch": 2, "neyshabur": 1, "seek": 7, "closes": 2, "adversarially": 7, "introducing": 1, "adversary": 2, "regularizing": 7, "chained": 2, "ok": 3, "===========================================================================": 2, "logic": 3, "induction": 6, "amazing": 1, "provers": 2, "decompose": 5, "sub-goals": 1, "forth": 1, "...\"": 3, "mentioning": 1, "sigma": 1, "formally": 8, "rationale": 4, "tower": 5, "itemize": 2, "1.xxx": 1, "2.xxx": 1, "xxx": 2, "reading": 6, "unusual": 5, "rockt\u00e4schel": 1, "sebastian": 1, "riedel": 1, "srinivas": 1, "aravind": 1, "Universal": 3, "arxiv:1804.00645": 1, "thankful": 2, "supervision": 5, "regularizes": 1, "ignore": 9, "clarifying": 3, "measurements": 1, "non-baselines": 1, "semantic": 12, "superficial": 1, "rewriteability": 1, "database": 3, "manifest": 1, "decomposability": 1, "fascinating": 1, "continual": 25, "vcl": 4, "zintgraf": 2, "visualize": 2, "silence": 1, "smoothing": 6, "icl": 2, "saliency": 11, "fsm": 11, "ssr": 2, "rectangular": 1, "catastrophic": 18, "forget": 20, "pro": 5, "classic": 3, "ewc": 1, "overview": 5, "https://arxiv.org/pdf/1805.09733.pdf": 2, "yellow": 4, "instruct": 1, "hoc": 1, "visualisation": 2, "solely": 5, "attend": 4, "colour": 1, "11/21": 1, "hand-": 1, "craft": 2, "clarifications": 6, "mono-image": 1, "fare": 1, "downstream": 26, "segmentation": 8, "keypoint": 1, "probes": 1, "suffices": 2, "single-image": 5, "completeness": 7, "conv1/": 2, "fine-tuned": 4, "poorly": 12, "fine-tuning": 15, "gatys": 2, "cherry": 2, "proxy": 4, "practicality": 3, "anyway": 4, "-written": 12, "susbtitutive": 1, "core": 14, "ad": 1, "-image": 1, "finetuning": 1, "complement": 3, "probing": 4, "probed": 1, "-tuning": 2, "hearing": 1, "save": 4, "tone": 5, "blank": 3, "textureless": 1, "squeeze": 3, "\\kappa": 6, "variable-nabla": 1, "outer": 3, "w.r.t": 5, "y_": 2, "v}": 2, "lazaro": 3, "Gredilla": 4, "mathematically": 7, "y_v": 3, "m-way": 1, "categorical": 3, "V*": 1, "Monte": 6, "Carlo": 6, "114.32,111.12": 1, "122.11,128.20": 1, "favor": 4, "rebar": 3, "relax": 10, "contradicts": 2, "assistant": 1, "\\gammas": 1, "g_{\\gamma}^{": 1, "q_{\\gamma}": 2, "}.": 1, "g_{\\kappa}^{q_{\\gamma": 1, "}(": 2, "frac{-": 1, "1}{q_{\\gamma}(": 1, "\\nabla_{\\kappa": 2, "g_{\\kappa}^{q_{\\gamma}(": 1, "y|\\lambda": 1, "frac{-1}{q_{\\gamma}(y|\\lambda": 1, "q_{\\gamma}(y": 1, "eqs.": 1, "foundation": 5, "acceptable": 3, "namely": 13, "analytically": 3, "prohibitive": 2, "dy": 1, "f(": 7, "v+1": 1, "ef\ufb01cient": 1, "bullets": 1, "penultimate": 1, "nabla": 2, "multi-sample": 2, "reinforce2": 3, "one-dimensional": 3, "NB": 1, "multi-sample-based": 1, "-known": 5, "github.com": 1, "duvenaud/": 1, "therein": 1, "misunderstanding": 8, "velickovic": 4, "0.04": 1, "compensated": 2, "hyper-params": 1, "frank": 1, "-style": 1, "https://arxiv.org/abs/1803.07294).": 1, "generalises": 1, "cora": 1, "citeseer": 1, "pubmed": 1, "ppi": 1, "b_v": 1, "B_v": 1, "live": 1, "inside": 5, "c_b": 1, "c_d": 1, "favourable": 1, "discover": 5, "permit": 9, "modifies": 2, "sum-attention": 1, "retrained": 5, "cope": 2, "optimisations": 1, "aifb": 1, "dot-style": 1, "self-auxiliary": 1, "alternatively": 1, "attach": 1, "randomness": 2, "mitigates": 3, "copy": 6, "principal": 11, "softness": 1, "random-": 1, "mathilde": 1, "Caron": 1, "piotr": 1, "bojanowski": 2, "armand": 1, "joulin": 1, "matthijs": 1, "douze": 1, "features": 2, "Carl": 1, "doersch": 2, "Andrew": 4, "zisserman": 2, "Multi-task": 1, "-shot": 5, "costly": 6, "weakens": 1, "feasibility": 4, "cifar100": 4, "much-complicated": 1, "ms": 4, "ideal": 4, "numbered": 1, "terminology": 3, "apology": 1, "minimisation": 1, "\\theta_1": 1, "leveraging": 1, "die": 2, "providing": 6, "associating": 1, "prototypes": 4, "meta-data": 6, "sub-classes": 3, "employing": 3, "varied": 3, "human-defined": 1, "evolution": 7, "flavor": 1, "genetical": 1, "topologies": 4, "es": 16, "controller": 18, "hardware": 3, "theta": 37, "naive": 10, "cma-es": 2, "nge": 18, "ambiguous": 6, "unsupported": 1, "digression": 1, "bottom": 12, "interrupts": 1, "eg.": 5, "gait": 1, "robotics": 2, "Genetic": 1, "gno": 5, "ps": 2, "reuse": 4, "af": 16, "acronym": 2, "mb": 2, "mf": 7, "inaccurate": 3, "e.g": 2, "http://proceedings.mlr.press/v78/drews17a/drews17a.pdf)": 1, "asymptotic": 10, "https://arxiv.org/abs/1805.12114)": 1, "fitness": 3, "evolve": 5, "species": 1, "Unclear": 1, "recap": 1, "eq.11": 1, "annoying": 2, "rarely": 4, "press": 2, "afraid": 1, "abbreviation": 4, "ess": 20, "revisit": 4, "inconsistency": 2, "showcases": 3, "sims": 20, "1994": 9, "Cheney": 2, "2014": 14, "Taylor": 2, "GM": 1, "uc": 1, "bodyshare": 6, "ess-gm": 2, "-uc": 2, "rgs": 2, "fish": 6, "**70.21": 1, "38.32": 4, "51.24": 3, "54.40": 2, "54.97": 3, "20.96": 2, "Walker": 3, "4157.9": 3, "1804.4": 3, "2486.9": 3, "2458.19": 2, "2185.1": 3, "1777.3": 2, "sub-module": 1, "submodules": 1, "throw": 1, "away": 2, "re-optimizing": 2, "demand": 5, "joint-optimization": 2, "re-read": 1, "cma": 1, "converged": 1, "interpretation": 10, "self-modulation": 29, "sndc": 5, "inspect": 5, "notable": 4, "commentary": 2, "long-": 5, "bedroom": 4, "median": 4, "farthest": 1, "apparent": 5, "careful": 15, "diagnostics": 2, "deeply": 3, "fuel": 2, "asynchronously": 3, "gate": 3, "adoption": 2, "fid": 27, "noticeable": 3, "recall": 4, "inspection": 2, "visible": 5, "https://arxiv.org/abs/1806.00035": 1, "regimen": 1, "minibatches": 6, "date": 3, "conclusively": 2, "intrigue": 5, "nonlinear": 5, "causal": 25, "sufficiency": 1, "w_{ji}": 2, ">0": 2, "=0": 3, "x^1": 8, "_{": 2, "t-": 13, "x^3": 8, "t}.": 4, "denote": 10, "\\eta_2": 7, "non-zero": 14, "reciprocal": 1, "d-separation": 1, "d-separated": 2, "\\cdot": 3, "_2": 3, "markov": 11, "x^3_": 1, "minimized": 3, "\\eta_1": 3, "infinity": 8, "w_": 1, "mistakenly": 1, "x^": 8, "structurally": 4, "_t.": 1, "16": 16, "X^{j}_": 1, "\\eta_x": 1, "\\epsilon_x": 1, "attain": 1, "independence": 15, "spirtes": 2, "1993": 2, "ic": 1, "Pearl": 1, "fci": 1, "fourth": 7, "causality": 3, "x^j_": 1, "x^i_{": 1, "instructive": 5, "presence": 9, "f_\\theta": 4, "\\eta": 2, "_t": 3, "b.3": 2, "\\tilde": 18, "x}^(": 1, "2}": 1, "->\\infty": 1, "landscape": 7, "mmse": 3, "uncorrupted": 3, "x^(": 2, "ramp": 1, "l1": 10, "sparsity": 19, "inducing": 3, "rescaling": 2, "Schott": 5, "bayes": 9, "inversion": 5, "loglikelihoods": 1, "boltzmann": 17, "-stages": 1, "couplings": 1, "j_h": 2, "activations": 10, "analogous": 4, "connect": 17, "679": 1, "patches": 8, "98": 2, "percentage": 5, "remind": 1, "mrf": 1, "denoised": 1, "puzzled": 4, "re-adjust": 1, "rating": 20, "referee": 8, "resistance": 10, "8x8": 4, "stack": 3, "stacking": 1, "unable": 7, "approximations": 10, "connectivity": 5, "28800": 1, "gladly": 2, "file": 1, "annotate": 6, "top-k": 7, "annotating": 2, "tedious": 2, "five": 3, "volunteer": 2, "graduate": 2, "distinguish": 15, "upset": 1, "factual": 2, "falsification": 1, "primarily": 12, "rooted": 1, "assessment": 10, "simoncelli": 1, "2008": 2, "interdisciplinary": 1, "mad": 25, "software": 4, "reconsider": 4, "serious": 6, "disappointed": 1, "labeling": 12, "efficacy": 4, "worst-": 3, "minimizes": 5, "workload": 2, "discrepancies": 7, "wordnet": 2, "k=30": 1, "stabilizes": 5, "k>15": 2, "1650": 1, "000": 1, "apparently": 1, "maximizing": 8, "competition": 5, "distinguishes": 3, "counterexamples": 3, "spotting": 3, "reveal": 9, "shed": 4, "accidentally": 2, "concur": 2, "steady": 1, "spearman": 1, "rank-order": 1, "srcc": 1, "0.89": 1, "-k": 6, "veteran": 1, "subjective": 4, "querying": 1, "f_i": 4, "f_j": 10, "annotators": 3, "f_i(": 3, "instruction": 1, "Wikipedia": 1, "Case": 8, "cease": 1, "counterexample": 3, "judgement": 1, "understandable": 2, "npn": 9, "recipes": 8, "pre-defined": 2, "lexicon": 1, "verb": 1, "bake": 1, "boil": 1, "propara": 6, "260": 1, "finish": 3, "F1": 12, "51.64": 2, "54.27": 2, "surpass": 2, "adaptivity": 2, "low-rank": 22, "Gram": 8, "full-matrix": 6, "root": 3, "convolved": 1, "``full-matrix": 1, "implementable": 1, "preconditioning": 4, "intro": 6, "ill-conditioned": 2, "ill-conditioning": 1, "tweaks": 4, "essential": 5, "systematically": 1, "informally": 1, "formality": 1, "informality": 1, "modularize": 1, "inaccuracies": 1, "ggt": 3, "central": 4, "preconditioner": 3, "1/2": 5, "@Inverse": 1, "conjugate": 1, "immediately": 6, "m^{": 2, "krylov": 1, "subspace": 2, "incurring": 2, "did*": 1, "svd": 3, "kicks": 1, "@full-matrix": 1, "@": 1, "full-rank": 1, "windowed": 2, "distant": 2, "ubiquity": 1, "@location": 1, "\\mu": 7, "@comparison": 1, "second-order": 4, "@tweaks": 1, "controversial": 3, "interpolation": 9, "exponential": 7, "subtler": 1, "amsgrad": 1, "beta_1": 1, "everyone": 2, "tweak": 2, "unconditionally": 1, "@informal": 1, "suppressing": 1, "constants": 3, "readability": 4, "widespread": 3, "deferring": 1, "non-asymptotic": 1, "composite": 4, "blake": 1, "woodworth": 1, "nati": 1, "srebro": 1, "subgradient": 1, "J": 1, "duchi": 3, "hazan": 3, "Y": 13, "Singer": 2, "jmlr": 1, "d.kingma": 1, "ba.": 1, "reddi": 1, "kale": 1, "Kumar": 10, "multi-source": 13, "discrepancy": 15, "alpha": 5, "\\eta_": 4, "\\mathcal": 3, "h}": 4, "adaptability": 1, "h}}": 1, "Sankaranarayanan": 1, "Balaji": 2, "Castillo": 1, "chellappa": 1, "June": 1, "saito": 1, "kuniaki": 1, "saenko": 5, "kulis": 1, "fritz": 1, "darrell": 5, "adapting": 1, "2010": 7, "D]": 1, "Venkateswara": 1, "J.Eusebio": 1, "s.chakraborty": 1, "s.panchanathan": 1, "hashing": 2, "thm.1": 1, "mathcal": 2, "unavailable": 1, "handful": 1, "alphas": 1, "adaption": 1, "single-source": 3, "1's": 2, "competitor": 2, "matching": 6, "m3sda": 3, "peng": 1, "Home": 6, "offline": 2, "freeze": 2, "unsurprisingly": 1, "protocol": 10, "data-splits": 1, "tunes": 1, "image-to-": 2, "establishes": 6, "venue": 3, "paradigm": 9, "Translation": 6, "cyclegan": 4, "utilized": 2, "data-split": 1, "1223": 1, "taesung": 1, "Park": 4, "jun-yan": 1, "zhu": 5, "Phillip": 4, "Isola": 6, "kate": 2, "alyosha": 1, "efros": 2, "trevor": 2, "cycada": 4, "cycle-consistent": 3, "volume": 2, "silberman": 1, "dohan": 1, "erhan": 3, "krishnan": 1, "combinatorial": 13, "surrogate": 11, "clique-finding": 1, "Assessment": 1, "cakewalk": 18, "untuned": 1, "CE": 12, "problematic": 7, "x$": 1, "parity": 1, "s(": 2, "sum{x_j": 1, "sga": 2, "\\delta$": 1, "\\beta_1": 2, "beta_2": 2, "normalizing": 2, "k-medoids": 2, "bold": 7, "n/a": 1, "k=100": 2, "blindly": 2, "validity": 4, "na": 1, "recur": 3, "https://openreview.net/forum?id=hkx-ii05fq&noteid=hygfbnml6x.": 2, "nonetheless": 11, "eventually": 4, "surrogates": 1, "optimum": 2, "maximizer": 2, "integer": 1, "clique": 15, "x_i=1": 2, "decreases": 5, "rubinstein": 3, "classical": 14, "bandit": 2, "exp3": 3, "theoretic": 8, "protect": 1, "execution": 3, "distort": 1, "x_i=j": 2, "x_k": 1, "skew": 1, "lessen": 1, "deviations": 7, "inversely": 2, "inevitably": 1, "whenever": 2, "polynomially": 1, "corrections": 3, "surely": 1, "locally": 7, "corrects": 2, "entail": 2, "encounter": 2, "exponentially": 4, "indicator": 5, "nvp": 2, "bidirectional": 3, "na\u00efve": 1, "inclusion": 9, "demonstration": 7, "crystal": 3, "cgan": 9, "satisfactory": 3, "l_z": 2, "l_y": 4, "l_x": 3, "trainings": 2, "sl": 1, "usl": 1, "advantageous": 2, "pad": 1, "zero-padded": 1, "entries": 7, "high-quality": 4, "bi-directional": 1, "inform": 4, "indirectly": 2, "attributes": 9, "allocate": 1, "penalized": 2, "coupling": 8, "autoregressive": 2, "mmd": 3, "up-weighting": 1, "1:1": 1, "padding": 6, "amplitudes": 1, "overwrite": 1, "amplitude": 3, "Works": 1, "Jacobians": 1, "scale-": 12, "https://i.imgur.com/ft09pk9.png": 1, "Laurent": 1, "dinh": 1, "jascha": 1, "sohl": 3, "-dickstein": 1, "samy": 1, "bengio": 5, "arxiv:1605.08803": 1, "prafulla": 1, "dhariwal": 1, "glow": 1, "arxiv:1807.03039": 1, "schirrmeister": 1, "Robin": 1, "tibor": 1, "reversible": 1, "arxiv:1806.01610": 1, "discritization": 4, "situate": 4, "invest": 1, "-softmax": 5, "strands": 1, "amend": 2, "award": 1, "segment": 4, "end-to-": 5, "entry": 3, "acoustic": 8, "better-matched": 2, "vqvae": 2, "grammar": 6, "capitalization": 1, "workarounds": 2, "workaround": 1, "missing": 5, "versteegh": 1, "anguera": 1, "jansen": 1, "dupoux": 1, "Zero": 7, "proposed": 3, "approaches": 1, "sltu": 1, "Procedia": 1, "Science": 4, "81": 1, "pp": 2, "67-": 1, "72": 2, "https://arxiv.org/abs/1904.11469": 1, "https://arxiv.org/abs/1905.11449": 1, "https://arxiv.org/abs/1904.07556": 1, "https://arxiv.org/abs/1904.03240": 1, "https://arxiv.org/abs/1807.03748": 1, "https://arxiv.org/abs/1803.08976": 1, "replacing": 1, "two-step": 1, "configuration": 8, "considerably": 4, "loosely": 1, "G=1...": 1, "centroids": 1, "favorable": 6, "g=2": 1, "v=320": 1, "13.5k": 1, "/23k": 1, "circumvented": 1, "re-initialization": 1, "avenue": 4, "transcriptions": 1, "defense": 5, "maxconfidence": 4, "confuses": 1, "benchmarking": 5, "maxloss": 1, "sparql": 4, "record": 1, "correspoding": 1, "scratchpad": 10, "semantically": 3, "conditioned": 3, "Spoken": 1, "dialogue": 3, "tsung-hsien": 1, "Milica": 1, "gasic": 1, "Nikola": 1, "mrksic": 1, "pei-hao": 1, "Su": 4, "vandyke": 1, "Steve": 1, "Young": 1, "emnlp": 1, "https://arxiv.org/abs/1508.01745": 1, "Checklist": 1, "Chloe": 1, "kiddon": 1, "luke": 1, "zettlemoyer": 1, "yejin": 1, "choi": 5, "https://aclweb.org/anthology/d16-1032": 1, "hedged": 1, "appropriately": 4, "linearization": 1, "inout": 1, "non-neural": 1, "nlg": 4, "gold": 3, "inappropriate": 1, "http://www.aclweb.org/anthology/p16-2013": 1, "bleu": 12, "jefferson": 1, "semntically": 1, "declaration": 1, "marry": 1, "baby": 1, "fluent": 1, "guideline": 3, "slot-value": 1, "correspondingly": 2, "logical": 11, "adequacy": 1, "fluency": 1, "vice-versa": 2, "rouge": 3, "meteor": 2, "multi-reference": 2, "unmodified": 4, "10/100": 1, "cropping": 1, "bi": 1, "photo": 3, "jigsaw": 6, "exemplar": 3, "dosovitskiy": 2, "monotonic": 1, "tables": 3, "conv5": 1, "conv4": 1, "monogan": 3, "kolesnikov": 1, "zhai": 1, "beyer": 1, "L.": 14, "revisiting": 1, "arxiv:1901.09005": 1, "crowded": 2, "sky": 1, "striving": 1, "busy": 1, "pretext": 2, "invariances": 1, "colorization": 5, "noise-as-targets": 1, "cheat": 2, "translate": 6, "alexNets": 1, "skip-connections": 1, "destroy": 2, "upcoming": 5, "explode": 6, "wild": 1, "colorful": 2, "pathak": 6, "noroozi": 2, "puzzle": 2, "restore": 1, "pretrained": 7, "noise-free": 1, "induces": 5, "2,3": 4, "somebody": 2, "89,9001": 1, "V": 13, "magnified": 1, "f.": 1, "evidences": 1, "celebA": 1, "equality": 1, "p_r(": 1, "=p_g": 1, "\\simeq": 1, "skeptical": 1, "gp": 2, "actor-critic": 20, "re-parameterized": 5, "planet": 8, "reluctant": 2, "backpropagates": 2, "viewpoint": 2, "simulating": 2, "unsuitable": 2, "pilco": 1, "deisenroth": 1, "2011": 6, "mdps": 9, "inapplicability": 2, "unless": 8, "backpropagation": 4, "q_theta": 1, "albeit": 6, "keen": 1, "\u221e": 4, "propagates": 1, "Recent": 2, "proprioceptive": 2, "chua": 1, "shyam": 1, "ba": 3, "hafner": 1, "h=20": 1, "discount": 3, "dice": 1, "foerster": 1, "d\u03bc": 1, "d\u03c3": 1, "gumble-softmax": 1, "atari": 3, "dmlab": 1, "reparamterization": 1, "rezende": 5, "Miller": 1, "estimators": 8, "a3c": 2, "mnih": 1, "sac": 7, "haarnoja": 1, "zero-confidence": 8, "marginattack": 7, "rosen": 1, "CW": 16, "satisfy": 13, "thick": 1, "scanned": 1, "success-": 1, "rate-": 1, "https://docs.google.com/viewer?url=https://raw.githubusercontent.com/anon181018/iclr2019_rebuttal/master/figure2.pdf": 2, "bend": 2, "ball": 9, "minimization": 7, "minimizer": 3, "lagged": 1, "x_": 3, "1}^": 3, "gene": 2, "regulatory": 2, "neuroscience": 2, "n=30": 1, "n=": 1, "n=2": 2, "i^u=1/": 1, "sum_l": 1, "var": 1, "1,": 1, "l}": 1, "{j": 1, "l}^2": 1, "i^u": 1, "practitioners": 1, "arrows": 2, "***": 4, "whereby": 1, "anti-ME": 3, "mass": 3, "justified": 11, "reversing": 1, "credibility": 1, "duly": 1, "mappings": 13, "polysemy": 1, "synonymy": 1, "outweigh": 1, "incur": 2, "presumably": 7, "frequent": 2, "quantified": 4, "strategic": 1, "standpoint": 2, "plausibly": 1, "scattered": 2, "admittedly": 1, "pronounce": 2, "law": 1, "id": 5, "C?": 1, "realm": 1, "speed-ups": 1, "oenn": 4, "loe": 2, "t-distributed": 1, "tste": 2, "20k": 1, "50k": 1, "100k": 1, "mturk": 3, "necessitates": 1, "secondarily": 1, "scatter": 1, "food": 2, "heat": 2, "uncover": 1, "legend": 1, "intensity": 1, "y-axis": 1, "colorbar": 1, "overload": 2, "neighborhood": 9, "limiting": 11, "x_i=k": 1, "lastly": 3, "modularity": 1, "modular": 2, "instantiation": 1, "letter": 1, "digits": 5, "nmn": 25, "layout": 9, "parametrization": 5, "timely": 2, "steer": 1, "layouts": 4, "sqoop": 12, "templated": 1, "clevr": 7, "scenes": 2, "yin": 1, "goyal": 1, "tree": 17, "dag": 5, "daj": 1, "Tree": 3, "rh": 11, "lh": 9, "lhs=18": 1, "anywhere": 4, "stark": 1, "p_0": 1, "building": 11, "spur": 4, "rethink": 2, "rephrase": 2, "xry": 2, "n2nmn": 2, "requirement": 6, "rendering": 2, "cylind": 1, "sphere": 25, "cube": 1, "3x4x3=36": 1, "hind": 1, "12248": 1, "-side": 1, "rerender": 1, "blend": 4, "renderer": 1, "lighting": 1, "occlusions": 1, "enticing": 1, "ying": 1, "crowd-sourced": 2, "enter": 1, "https://arxiv.org/pdf/1505.00468v6.pdf).": 1, "chain-structured": 2, "shortcuts": 1, "legitimate": 1, "spurious": 7, "lhs=1": 1, "=2": 1, "replying": 1, "purposely": 2, "unavailability": 1, "sensitivity": 3, "troubleshooting": 1, "modulo": 3, "mind": 5, "minimalistic": 1, "scientific": 3, "breadth": 2, "validate": 4, "insufficiently": 1, "openreview": 3, "resilient": 2, "survive": 6, "bypass": 1, "trigger": 11, "triggers": 11, "a-s": 1, "4x": 1, "1/4": 6, "glasses": 3, "bagdasaryan": 1, "targeted": 1, "------------": 3, "post-rebuttal": 1, "-------------": 1, "point-": 3, "injected": 5, "0.992": 1, "0.964": 1, "0.990": 1, "0.991": 1, "Change": 2, "backdoored": 1, "irregular": 2, "logo": 1, "decomposed": 2, "a.3": 1, "hundred": 1, "synthetically": 3, "representative": 5, "sence": 1, "mis-understanding": 1, "attesting": 1, "URL": 4, "-series": 3, "forecasting": 1, "decade": 1, "out-distribution": 9, "classy": 2, "-distribution": 9, "detector": 2, "she": 4, "secure": 1, "ineffectiveness": 1, "in-distribution": 2, "measurement": 3, "odin": 2, "kyunghyun": 2, "Cho": 2, "-augmented": 1, "improved": 6, "arxiv:1802.09502": 1, "cisse": 1, "dauphin": 2, "lopez-paz": 1, "mixup": 3, "arxiv:1710.09412": 1, "1854": 1, "spose": 4, "49": 2, "cslb": 2, "text-derived": 1, "synsets": 1, "co-occurence": 1, "non-behavioral": 1, "behavioral": 1, "interpolating": 2, "synset": 5, "baton": 1, "relay": 1, "race": 1, "twirling": 1, "weapon": 1, "police": 1, "musical": 1, "conductor": 1, "50d": 1, "300d": 1, "nnse": 1, "formulates": 1, "classifer": 4, "motivated": 1, "class-wise": 2, "mentornet": 4, "https://github.com/google/mentornet": 1, "L-": 2, "fbgs": 2, "aysmmetric": 1, "jiang": 4, "Leung": 2, "fei-fei": 2, "curriculum": 1, "corrupted": 3, "ren": 4, "Zeng": 2, "urtasun": 2, "reweight": 2, "q.": 5, "rozza": 1, "menon": 1, "nock": 1, "correction": 1, "goldberger": 2, "ben-reuven": 2, "sukhbaatar": 1, "paluri": 1, "bourdev": 1, "Nicholas": 2, "symposium": 2, "sp": 2, "szegedy": 2, "sutskever": 2, "goodfellow": 3, "intriguing": 2, "skip": 5, "l-fbgs": 1, "near-": 1, "Jacob": 1, "ehud": 1, "Zhengyuan": 1, "Thomas": 5, "li-jia": 1, "mengye": 1, "wenyuan": 1, "Bin": 1, "raquel": 1, "eran": 1, "Malach": 1, "shai": 3, "shalev-shwartz": 1, "belkin": 2, "eventual": 1, "keskar": 2, "lr": 10, "32": 8, "upfront": 1, "unlimited": 1, "bassily": 1, "clarifies": 3, "notably": 5, "promotes": 1, "FL": 6, "dishonest": 1, "participant": 1, "desire": 10, "misclassified": 2, "concatenation": 4, "corruptions": 1, "analogs": 1, "robustification": 1, "appreciation": 1, "-conditioned": 1, "truncation": 24, "orthogonalization": 1, "zero-centered": 1, "penalty": 18, "~300": 2, "anyone": 1, "adequate": 1, "correlated": 9, "remarkable": 1, "appendices": 1, "colleague": 3, "maximal": 7, "discourage": 2, "publishing": 4, "wish": 4, "positioning": 2, "disproportionate": 2, "suggestions": 3, "constraining": 3, "projecting": 2, "0-": 1, "center": 8, "hyper-sphere": 5, "radius": 1, "mapped": 3, "heatmap": 1, "sharp": 5, "upward": 1, "D\u2019s": 2, "unconstrained": 2, "sigma^2": 2, "inability": 1, "stabilize": 1, "sacrificing": 3, "disappointing": 3, "re-structured": 1, "align": 8, "probable": 3, "CelebA": 3, "inline": 3, "instabilities": 1, "train-test": 1, "disparity": 2, "g\u2019s": 2, "orthogonality": 2, "amenability": 3, "suspicion": 1, "untruncated": 1, "truncated": 3, "attenuate": 1, "amplify": 2, "pathway": 1, "saturation": 2, "speculate": 1, "expose": 1, "path": 10, "measurably": 1, "singular": 3, "wary": 1, "succinct": 1, "analogously": 1, "immediate": 4, "measurable": 2, "investigatory": 1, ">I": 2, "salient": 4, "largely": 4, "comprises": 1, "medium": 2, "biggan": 9, "c.2": 3, "9.22": 2, "14.73": 2, "Laplacian": 2, "impractical": 4, "\\delta": 3, "z+\\delta": 1, "|_F": 1, "\\bar": 3, "r(": 2, "||f(": 1, "r(z": 1, "||_F": 1, "qi": 4, "ent": 1, "13.15": 1, "4000": 3, "4.28": 1, "neglect": 2, "regularizations": 2, "supervised": 7, "aaai": 4, "neighbors": 1, "entmin": 2, "head": 3, "11.32": 1, "11.79": 1, "14.93": 1, "14.34": 1, "0.17": 1, "defining": 3, "re-iterate": 1, "whilst": 4, "data-points": 1, "ambient": 4, "inter-model": 2, "near-random": 1, "toward": 9, "i$": 15, "task-": 2, "essence": 1, "open-set": 4, "nontrivial": 3, "recognizing": 6, "vgg16bn": 1, "-edge": 1, "corner": 3, "searched": 8, "web-scale": 1, "reliably": 3, "methodologies": 1, "k=15": 1, "plenty": 3, "screen": 1, "open-": 1, "low-confidence": 1, "conductance": 15, "attribution": 3, "conservation": 1, "redistributed": 1, "axioms": 11, "sake": 2, "axiomatization": 1, "uniqueness": 2, "non-oblivious": 2, "partition": 4, "axiom": 4, "6.1": 2, "parameterised": 1, "incorrectly": 5, "log-marginal": 1, "summation": 3, "maximising": 1, "q(\\theta": 1, "x_n": 2, "hypernetoworks": 1, "imposition": 1, "covariances": 1, "diag": 3, "kronecker": 2, "cubic": 1, "out-of-": 1, "5.2": 8, "quantifies": 1, "accompanying": 1, "misunderstandings": 4, "bnn": 4, "|...": 1, "\\sum_n": 1, "p(y_n": 1, "graves": 5, "Blundell": 2, "logarithm": 3, "hypernetworks": 5, "ha": 3, "jia": 2, "matrix-variate": 1, "mvn": 2, "r^{p": 1, "q}": 2, "pq": 1, "+p+q": 1, "pq+pq": 1, "rank-": 1, "uu^t": 1, "u": 11, "negligible": 4, "6.1.": 1, "unfortunate": 1, ">.": 1, "dai": 2, "quoc": 1, "V.": 7, "Le": 3, "arxiv:1609.09106": 1, "Dynamic": 2, "2348-2356": 1, "cornebise": 1, "kavukcuoglu": 1, "wierstra": 1, "d..": 1, "32nd": 1, "pmlr": 2, "37:1613-1622": 1, "definitti\u2019s": 1, "interior": 5, "thee": 1, "pipe-lining": 1, "ie": 2, "r^3": 13, "iv": 7, "encoder-": 1, "achiloptas": 1, "modelnet10": 2, "modelnet40": 2, "auto-encoding": 3, "encoder-decoder": 1, "point-cloud": 1, "non-realistic": 1, "casting": 1, "sloppy": 1, "life": 5, "g_theta": 10, "sim": 2, "p(theta": 3, "ipm": 2, "passage": 1, "xi": 1, "p|g": 1, "statistician": 1, "\u201917": 1, "https://openreview.net/pdf?id=hjdbuf5le": 1, "vedio": 1, "op": 1, "circile": 1, "condct": 1, "refenence": 1, "z_i": 1, "non-uniform": 1, "decimation": 1, "eg": 2, "chop": 1, "practitioner": 6, "acquire": 6, "scanners": 1, "hole": 4, "disk": 2, "occurrence": 1, "|G": 1, "subsequent": 5, "g_x": 3, "subsection": 8, "ordinary": 3, "gauge": 1, "evident": 1, "s=0": 2, "s=1": 2, "s_1<": 1, "s_2<": 1, "s_3": 1, "s1": 1, "s2": 8, "s3": 1, "high-resolution": 1, "8x": 1, "splitting": 1, "chunk": 1, "injecting": 1, "resampled": 1, "test-time": 1, "-fidelity": 1, "characterize": 11, "sudden": 1, "pluses": 1, "128-": 1, "tpcs": 1, "severely": 1, "batchnorm": 8, "device": 3, "per-device": 7, "small-medium": 2, "data-modalities": 2, "higly": 1, "128x128": 2, "256x256": 1, "cross-replica": 1, "switching": 1, "crippling": 1, "9.5": 2, "78": 1, "mean-field": 4, "rom": 11, "rbm": 7, "contrastive": 3, "bms": 2, "bm": 4, "http://proceedings.mlr.press/v5/salakhutdinov09a/salakhutdinov09a.pdf": 1, "energy": 6, "calculation": 5, "obtaining": 1, "Auto": 1, "https://arxiv.org/pdf/1802.06806.pdf": 1, "grey": 1, "defending": 1, "concretely": 3, "restricted": 5, "Machines": 6, "pre-processor": 1, "constrastive": 1, "indication": 2, "concentrate": 1, "unrolling": 1, "succesfully": 1, "expansion": 1, "rescale": 1, "unclamped": 1, "resistant": 1, "explicitely": 1, "seyed": 1, "mohsen": 1, "moosavi-dezfooli": 1, "ashish": 5, "shrivastava": 1, "oncel": 1, "tuzel": 1, "denoise": 1, "1802.06806": 1, "ruslan": 1, "salakhutdinov": 1, "geoffrey": 1, "hinton": 2, "twelfth": 1, "artificial": 7, "Intelligence": 3, "statistics": 3, "448-455": 1, "2009": 8, "pawe\u0142": 1, "budzianowski": 1, "-temperature": 1, "expansions": 1, "master": 1, "thesis": 2, "University": 2, "Cambridge": 1, "marylou": 1, "gabri\u00e9": 1, "tramel": 1, "florent": 1, "Krzakala": 1, "thouless": 1, "-anderson": 1, "Palmer": 1, "corr": 2, "abs": 2, "/1506.02914": 1, "mc": 28, "gal": 3, "over-confident": 1, "scarce": 2, "multiply": 2, "Lakshminarayanan": 4, "huand": 2, "snapshots": 1, "timesteps": 1, "bandits": 2, "ensembles": 12, "Alexander": 1, "pritzel": 1, "Charles": 1, "blundel": 1, "gao": 1, "huang": 2, "yixuan": 1, "geoff": 1, "pleiss": 1, "zhuang": 1, "Liu": 7, "John": 4, "hopcroft": 1, "kilian": 1, "weinberger": 1, "snapshot": 1, "M}": 1, "springenberg": 3, "Klein": 3, "s.falkner": 1, "hutter": 4, "snoek": 2, "o.": 5, "rippel": 1, "kiros": 1, "satish": 1, "sundaram": 1, "patwary": 1, "prabhat": 1, "Adams": 1, "showdown": 1, "Thompson": 1, "Carlos": 1, "riquelme": 1, "George": 1, "tucker": 1, "jasper": 1, "Beluch": 5, "somehow": 7, "phd": 1, "prop": 1, "mcmc": 5, "invariably": 1, "imaging": 1, "industry": 1, "ass": 1, "viability": 1, "algorithmic": 3, "ht": 3, "geometrically": 1, "a_i": 1, "a^": 1, "_i": 1, "x^*": 1, "_j": 1, "r^m": 1, "1.1": 4, "eta_x": 3, "step-size": 12, "eta_A": 6, "prescribes": 1, "a.5": 1, "omega_tilde": 2, "sqrt": 2, "\u02c6": 1, "2/n": 1, "priori": 3, "incoherence": 1, "mu": 1, "unavoidable": 2, "fista": 3, "1/l": 1, "lipschitz": 10, "alternately": 1, "step-sizes": 1, "compile": 1, "1020": 1, "50100": 1, "fig.2": 1, "l2": 1, "error-in-variables": 1, "eiv": 1, "assures": 1, "Definition": 1, "sub-section": 1, "Online": 3, "provable": 2, "non-negligible": 1, "bridge": 1, "neurally": 1, "paves": 1, "`09": 2, "co-ordinate": 1, "``online": 1, "stringent": 1, "initializations": 1, "devises": 1, "CL": 5, "replay": 13, "gr": 9, "ingredient": 2, "flowchart": 5, "consisting": 2, "functionality": 3, "plugged": 1, "outcome": 4, "pointers": 3, "fold": 6, "negatively": 3, "diva": 14, "-wise": 2, "vulnerability": 1, "narrowing": 3, "unpaired": 1, "fortunately": 1, "translators": 1, "resist": 1, "van": 4, "de": 3, "ven": 2, "gido": 2, "andrea": 2, "tolias": 2, "arxiv:1809.10635": 2, "mundt": 2, "Martin": 5, "arxiv:1905.12019": 2, "danilo": 2, "vasconcellos": 2, "vargas": 2, "kouichi": 2, "sakurai": 2, "fooling": 2, "transactions": 2, "GCN": 6, "lift": 3, "devolve": 1, "flat": 2, "join": 1, "handy": 1, "downside": 1, "everything": 2, "inevitable": 1, "interpolates": 2, "piecewise": 2, "c=0": 1, "Chami": 3, "subtle": 5, "midpoint": 2, "def.": 1, "s^2": 4, "antipodal": 1, "v|": 2, "De": 7, "sa": 1, "sala": 1, "gulcehre": 1, "hyperboloid": 2, "B.3.3": 1, "diffeomorphism": 1, "non-uniqueness": 2, "locus": 1, "sarkar": 1, "unweighted": 2, "k-addition": 3, "definiteness": 1, "!=": 2, "||y": 1, "left-matrix": 3, "-multiplication": 5, "isometries": 4, "right-stochastic": 2, "right-matrix": 2, "tangent": 2, "deadline": 5, "sectional": 2, "\u201919": 4, "modest": 3, "duvenauld": 1, "best-performing": 1, "lattices": 2, "period": 10, "stylistic": 2, "wealth": 1, "originate": 2, "generalisations": 1, "grids": 3, "non-basis": 1, "reworked": 2, "cornerstone": 1, "bn": 28, "normalizations": 3, "non-local": 1, "non-asymptotically": 1, "occludes": 1, "emphasized": 2, "data-": 1, "reintroduce": 2, "preserve": 9, "freedom": 4, "wait": 3, "inspiration": 2, "preprints": 1, "month": 1, "Note": 2, "covariate": 3, "actively": 2, "imprecise": 1, "quantities": 4, "beta": 8, "cumulative": 4, "preceding": 1, "re-initializes": 1, "gitman": 1, "ginsburg": 1, "glorot": 3, "initializer": 1, "||w|": 1, "|=1": 1, "auto-rate": 1, "Speed": 1, "p2": 1, "deviates": 1, "wn": 3, "conceptually": 5, "one-neuron": 1, "r^d": 3, "feedforward": 3, "scale-variant": 1, "scale-invariant": 1, "reshaping": 1, "-less": 1, "expert": 19, "English": 2, "...)": 1, "3.7": 2, "nit": 2, "speedup": 16, "overlapped": 3, "clusters": 5, "asymmetric": 1, "lsh": 1, "alsh": 1, "Inner": 1, "mips": 1, "alleviating": 1, "autoencoder": 5, "narayanaswamy": 3, "\\hat{\\mu}_c": 2, "\\hat{\\sigma}_c$": 1, "\\hat": 16, "\\sigma}_c$": 1, "ce": 2, "siddharth": 2, "Brooks": 1, "paige": 1, "jan-willem": 1, "Van": 1, "meent": 1, "alban": 1, "desmaison": 1, "noah": 1, "goodman": 1, "pushmeet": 1, "kohli": 1, "Frank": 19, "Wood": 1, "Philip": 1, "torr": 1, "5925-5935": 1, "intelligence": 3, "incrementally": 1, "hippocampus": 1, "primate": 1, "brain": 1, "unconditional": 2, "cdvae": 9, "vulnerable": 2, "seriously": 1, "alleviate": 1, "\\mathrm{\\mu_c}": 2, "\\mathrm": 5, "\\sigma_c}": 1, "\\mathrm{\\sigma_c": 1, "domains": 1, "legg": 1, "Shane": 1, "Marcus": 2, "17.4": 1, "2007": 7, "391-444": 1, "https://sites.google.com/view/continual2018": 1, "hanul": 1, "lesort": 1, "timoth\u00e9e": 1, "behaved": 1, "headroom": 2, "r3": 13, "bowling": 1, "clipped": 1, "flash": 1, "scoreboard": 1, "non-stationarity": 2, "confounds": 3, "shift-": 4, "F-": 2, "remarkably": 1, "moderns": 1, "win": 4, "sine": 3, "wave": 3, "aa": 9, "s.t.": 1, "average-pooling": 1, "low-pass": 1, "sightly": 1, "circular": 5, "paddings": 3, "ignoring": 1, "optimality": 13, "2n+1": 1, "2n": 2, "n+": 1, "||.": 1, "fig.4": 1, "iclr2018": 1, "prunes": 1, "Multi-bit-quantization": 3, "Care": 2, "k-bit": 1, "simulate": 1, "71": 1, "uneven": 1, "compatibility": 1, "bit-by": 1, "75": 2, "106": 1, "dram": 1, "darryl": 1, "sachin": 1, "talathi": 1, "sreekanth": 1, "annapureddy": 1, "fixed": 1, "33rd": 1, "Volume": 3, "48": 2, "\u201916": 1, "2849\u20132858": 1, "daisuke": 1, "miyashita": 1, "Edward": 2, "boris": 1, "murmann": 1, "/1603.01025": 1, "https://arxiv.org/abs/1603.01025.": 1, "metasgd": 1, "overally": 1, "z$": 1, "\\phi^": 1, "regularize": 4, "fgsm": 7, "````wwwdiscuss": 1, "fsgm": 1, "->fgsm": 1, "q=p": 1, "improving": 2, "a)": 5, "pgd": 13, "iter": 1, "l_1": 2, "l_2": 3, "l_\\infty": 3, "meta-dropout": 11, "championing": 1, "downgrade": 1, "93": 4, "convnets": 3, "kolmogorov": 2, "-smirov": 1, "leakage": 2, "moderate": 4, "richer": 2, "info": 2, "private": 2, "mat": 6, "simplistic": 3, "-smirnov": 1, "multi-dimensional": 1, "67.7": 1, "66.5": 1, "62": 1, "resnet101": 3, "shadow": 1, "58.2": 1, "60.8": 2, "hinders": 1, "cliques": 1, "centering": 1, "factorizing": 1, "parametric": 10, "non-": 2, "lessened": 1, "caring": 1, "exception": 2, "best-sample": 1, "oce_0.1": 2, "reinforce_z": 1, "shaping": 4, "variates": 2, "vimco": 1, "muprop": 4, "descriptive": 1, "https://openreview.net/forum?id=hkx-ii05fq&noteid=hygfbnml6x,": 1, "agenda": 1, "dimacs": 2, "regularly": 1, "tailored": 7, "or-": 1, "answers": 2, "oce": 1, "reinf_z": 1, "particularities": 1, "consulting": 1, "2.4": 3, "wngrad": 1, "lst": 1, "classically": 1, "warping": 4, "conlstm": 1, "one-step": 2, "synthesize": 2, "A.1.1": 1, "a.1.2": 1, "learned": 1, "mode-collapses": 1, "uninformative": 1, "controllable": 4, "person": 6, "activity": 6, "user-defined": 1, "mark": 4, "displacement": 1, "Pose2Pose": 5, "pose2": 19, "Frame": 12, "pix2pixHD": 4, "p2p": 6, "still-images": 1, "dense-pose": 1, "p2f": 4, "l_inf": 1, "obfuscated": 2, "Security": 2, "55": 3, "0.031": 3, "0,1": 4, "1,1": 1, "255": 1, "0.1/255": 1, "madry": 2, "athalye": 1, "-margin": 2, "certification": 2, "adv": 2, "47": 1, "norm-inf": 1, "preprocessed": 1, "whiten": 1, "crop": 3, "42": 1, "39": 2, "1.02": 1, "1.84": 1, "inception": 10, "backend": 1, "transparency": 1, "deallocation": 1, "submit": 5, "MD": 2, "propogation": 1, "3.2.2": 3, "constructing": 3, "k-nearest": 3, "neighbor": 9, "n=5": 4, "k=1": 6, "q=15": 3, "elsewhere": 1, "-pooling": 1, "tf.nn.top_k": 1, "episodic-wise": 1, "verifying": 1, "vinyals": 3, "oriol": 2, "morphology": 2, "mutation": 2, "pool": 2, "candidate": 1, "expedites": 1, "nervenet": 1, "walk": 8, "morphologies": 2, "humanoid": 4, "-engineered": 1, "finetuned": 1, "hand-engineered": 1, "2x": 1, "human-designed": 1, "humanoids": 1, "symmetrical": 1, "gnn": 21, "70.21": 2, "78.3": 1, "52.5": 1, "contact": 1, "jeopardized": 1, "-4": 2, "human-engineered": 1, "co-evolve": 1, "x-axis": 3, "arxiv:1707.06347": 1, "superresolution": 1, "multichannel": 1, "truncate": 1, "upsample": 1, "squash": 1, "0..1": 1, "interplay": 2, "entitle": 2, "`a": 1, "non-convolutional": 1, "`our": 2, "`large": 1, "seq2seq": 6, "webquestionssp": 1, "wikisql": 2, "KB": 1, "qa": 2, "guo": 1, "att": 1, "h_0": 1, "h_t": 1, "s_{post_read": 1, "attn_copy": 1, "h^i_t": 1, "u^i": 2, "\\alpha^i_t": 1, "yih": 2, "strange": 6, "go-gradient": 3, "unbiased": 2, "backpropagated": 2, "nested": 2, "non-linear": 5, "figurnov": 4, "pathwise": 5, "jankowiack": 4, "obermeyer": 4, "-clear": 1, "low-variance": 1, "baed": 1, "favourably": 1, "Fan": 3, "re-parameterizable": 1, "exploits": 2, "summarizing": 1, "single-": 2, "reparameterizable": 3, "unifies": 1, "summarize": 8, "non-parameterizable": 2, "disks": 2, "ganea": 2, "variated": 1, "multiplication": 6, "mobius": 1, "matrix-vector": 3, "ungar": 2, "barycenter": 2, "bother": 1, "literatures": 1, "chebnet": 1, "engine": 1, "thriving": 1, "\\citep": 1, "\\cite": 3, "everywhere": 2, "innovation": 3, "critic": 7, "pdf": 7, "formalizes": 2, "stereographic": 1, "geodesics": 1, "gyro-operations": 1, "egregium": 1, "mobius-scalar-associative": 1, "writing": 1, "multidimensional": 1, "re-done": 1, "bibliography": 1, "cyclical": 1, "accordance": 3, "SETTINGS": 1, "results": 1, "15th": 1, "November": 1, "debal": 6, "supervising": 2, "plain": 3, "paramount": 1, "calibrate": 1, "strive": 1, "yeh": 7, "Raymond": 1, "acoustics": 1, "ton": 1, "degradations": 2, "blind": 1, "flaw": 3, "generality": 5, "\u00d7": 4, "downsampling": 2, "14\u00d714": 1, "1.0": 1, "manipulable": 1, "canonicalizers": 5, "predefined": 3, "canonicalizations": 13, "beta-vae": 1, "info-gan": 1, "beforehand": 1, "secondly": 3, "unrealistic": 3, "low-shot": 2, "Mehdi": 1, "paolo": 1, "favaro": 1, "alexei": 1, "gidaris": 1, "spyros": 1, "praveer": 1, "Singh": 1, "nikos": 1, "komodakis": 1, "arxiv:1803.07728": 1, "meta-labels": 2, "transferability": 3, "minimal": 6, "canonicaliers": 1, "ae": 2, "iterate": 3, "-nonconcave": 1, "consensus": 2, "lemmas": 1, "h$": 2, "3.2-": 1, "refereed": 1, "sgda": 1, "**********": 1, "********": 1, "\\|": 2, "\\xi": 1, "\\|$": 1, "non-increasing": 1, "restate": 2, "higher-order": 2, "agarwal": 3, "bubeck": 2, "iterates": 3, "r}^d": 1, "surround": 5, "g$": 1, "/sqrt": 1, "cancel": 1, "68": 1, "naman": 1, "elad": 1, "Lower": 2, "colt": 4, "s\u00e9bastien": 1, "near-optimal": 1, "canonicalization": 4, "disabled": 1, "pre-specified": 2, "non-image": 2, "minors": 1, "superscription": 1, "z_canon": 2, "prescribed": 2, "operator": 8, "sparsely": 11, "duration": 3, "rebuttals": 1, "intractable": 3, "exercise": 2, "fix-perturbation": 2, "https://docs.google.com/viewer?url=https://raw.githubusercontent.com/anon181018/iclr2019_rebuttal/master/figure1.pdf": 1, "probe": 1, "convert": 1, "nine": 1, "l-infinity": 1, "stipulate": 1, "countably": 1, "discontinuities": 1, "lipchitz": 2, "x*.": 1, "loose": 8, "dsprites": 1, "canonicalized": 7, "idempotency": 5, "parametrize": 2, "idempotent": 2, "pca": 3, "tripets": 1, "4.2.4": 1, "latents": 4, "c_1": 1, "c_2": 1, "c_1c_2": 1, "c_2c_1": 1, "orderings": 1, "structuring": 1, "enforcement": 2, "hurt": 4, "treating": 1, "canonicalizer": 1, "p*z": 1, "stripped": 1, "isolate": 1, "professor": 2, "teach": 2, "assistants": 2, "dissimilar": 2, "n-choose": 1, "96.88": 1, "grab": 1, "VC": 2, "non-linearities": 1, "vacuous": 6, "\\beta": 7, ">1": 4, "quick": 7, "subsumed": 1, "non-linearity": 1, "mgo": 1, "upto": 1, "koiran": 2, "pascal": 5, "eduardo": 4, "sontag": 5, "vapnik": 4, "chervonenkis": 2, "applied": 2, "Mathematics": 4, "86.1": 1, "1998": 2, "63-79": 2, "dasgupta": 2, "bhaskar": 2, "perceptron": 2, "Peter": 6, "Dylan": 2, "Foster": 2, "matus": 2, "telgarsky": 2, "unwinding": 1, "o(": 1, "d^8": 1, "t^2": 1, "coverings": 2, "beneath": 1, "\\approx": 1, "understandings": 1, "connecting": 1, "pac": 2, "instil": 1, "mgu": 3, "adopts": 1, "86": 2, "204-210.": 1, "vorontsov": 1, "Eugene": 1, "Chiheb": 1, "Trabelsi": 1, "Samuel": 1, "kadoury": 1, "Chris": 2, "pal": 2, "arxiv:1702.00071": 1, "arjovsky": 1, "amar": 1, "Shah": 4, "yoshua": 1, "Unitary": 1, "1120-1128": 1, "simonyan": 1, "Karen": 1, "arxiv:1409.1556": 1, "6240-6249": 1, "pros": 1, "cons": 1, "-to-mnist": 1, "pixelda": 1, "few-datasample": 2, "plagued": 1, "pollution": 1, "bioimage": 2, "informatics": 1, "well-known": 1, "6/9": 1, "dzeta": 1, "known-unknown": 1, "mada": 2, "dann": 3, "https://drive.google.com/file/d/1njtmkf53qmnx4_jyvh-ofxb0wjzcdvow/view?usp=sharing).": 1, "-strongly": 3, "opaque": 1, "Post": 3, "hyper-": 2, "tunability": 27, "trials": 5, "substitute": 1, "1.": 1, "comparisons": 4, "dramatically": 3, "excessive": 3, "giustified": 1, "wallclock": 1, "replication": 1, "Limited": 4, "a.i.": 2, "informativeness": 2, "w-tunability": 4, "hpo": 12, "by-one": 1, "the-shelf": 1, "attained": 1, "incumbents": 2, "trading": 1, "fpr": 1, "tpr": 1, "cumbersome": 1, "incumbent": 1, "k-": 2, "drastically": 2, "valuation": 1, "Wilson": 2, "rightfully": 1, "amplifying": 1, "Ashia": 1, "vatsal": 1, "anastasios": 1, "kyrillidis": 1, "sujay": 1, "Sanghavi": 1, "over-": 2, "arxiv:1811.07055": 1, "dami": 1, "arxiv:1910.05446": 1, "gans": 3, "semisupervised": 1, "clever": 5, "dcgan": 3, "pi": 5, "capitalized": 3, "dark": 2, "circle": 6, "thoroughness": 1, "Gulrajani": 2, "re-checked": 2, "bug": 3, "occasionally": 4, "q:\"": 1, "refines": 1, "quadratically": 1, "accredited": 1, "decouple": 1, "epsilon-net": 1, "rademacher": 2, "Dudley": 1, "unexplainable": 2, "hybridizes": 1, "unsegmented": 2, "healthcare": 3, "Doctor": 2, "ai": 2, "disease": 1, "medication": 1, "mimic": 1, "physionet": 1, "icu": 1, "mortality": 1, "Alex": 6, "santiago": 1, "Fern\u00e1ndez": 1, "Faustino": 1, "Gomez": 1, "j\u00fcrgen": 1, "schmidhuber": 2, "23rd": 1, "international": 2, "369-376": 1, "acm": 3, "2006": 4, "Byeon": 1, "wonmin": 1, "breuel": 1, "Federico": 1, "raue": 1, "liwicki": 1, "3547-3555": 1, "socher": 1, "Cliff": 1, "manning": 1, "ng": 1, "parsing": 2, "28th": 1, "129-136": 1, "Mohammad": 2, "taha": 1, "Bahadori": 1, "Andy": 1, "schuetz": 1, "Walter": 1, "Stewart": 1, "jimeng": 2, "Sun": 5, "predicting": 1, "clinical": 1, "301-318.": 1, "che": 1, "zhengping": 1, "sanjay": 1, "purushotham": 1, "yan": 1, "Scientific": 1, "6085": 1, "yanbo": 1, "biswal": 1, "shriprasad": 1, "deshpande": 1, "maher": 1, "raim": 1, "patient": 1, "monitoring": 1, "24th": 1, "sigkdd": 1, "Discovery": 2, "2565-2573": 1, "alphago": 6, "agz": 17, "-making": 3, "nash": 8, "-play": 2, "zero-sum": 2, "regularity": 1, "overclaim": 1, "imperfection": 1, "accumulates": 1, "diminish": 2, "\\pi*": 1, "reformulation": 1, "minimax": 1, "careless": 1, "``immediate": 1, "justification``": 1, "first-step": 1, "``applying": 1, "relaxation": 6, "parallelism": 1, "hinge": 6, "zero-one": 2, "headings": 1, "hardness": 1, "Landscape": 1, "bow": 1, "rephrases": 1, "homogeneous": 4, "inequality": 9, "indefinite": 1, "dual": 18, ">=1": 1, "mt": 2, "+2": 1, "whatsoever": 1, "Agent": 4, "Potential": 1, "maths": 3, "numerator": 2, "f_0": 3, "log-probability": 1, "differentiated": 1, "n>2": 1, "f_1": 3, "pudding": 1, "n=1": 1, "n=4": 3, "confusions": 1, "reorganized": 1, "Study": 2, "nmt": 5, "e1": 3, "e2": 3, "e3": 3, "checkpoints": 1, "iwslt2014": 1, "en": 6, "35.44": 1, "35.56": 1, "34.97": 1, "29.52": 1, "29.58": 1, "29.28": 1, "fr\u00e9chet": 3, "painting": 2, "fcn": 2, "cityscape": 2, "multi-agent": 5, "multi-agents": 1, "feedbacks": 2, "heusel": 2, "-scale": 3, "initialized": 3, "counter-intuitive": 1, "bsb1": 3, "lend": 2, "f:": 1, "evenly": 1, "minibatch": 2, "ellipse": 1, "propagated": 4, "chaotic": 1, "depthwise": 2, "-bsb1": 1, "explosion": 5, "nonlinearities": 3, "rapidly": 2, "spontaneous": 1, "winner-": 1, "dominance": 1, "persists": 1, "camera": 1, "ready": 1, "schoenholz": 5, "gilmer": 2, "Ganguli": 2, "dickstein": 2, "https://arxiv.org/abs/1611.01232)": 2, "xiao": 2, "bahri": 2, "sohl-dickstein": 2, "pennington": 2, "dynamical": 4, "isometry": 2, "https://arxiv.org/abs/1806.05393)": 2, "supposedly": 1, "_specific": 1, "version_": 1, "achlioptas": 2, "destined": 1, "deepset-like": 1, "converging": 1, "degeneracy": 1, "permutation": 8, "fahe": 1, "ali": 1, "engel": 1, "shapenet55": 1, "86.9": 1, "84.5": 1, "83.3": 1, "4x4": 1, "stacks": 2, "norouzi": 2, "greedily": 1, "0.67": 1, "attacking": 1, "crom": 1, "shuffled": 1, "nist": 1, "cleaner": 2, "vanish": 1, "including": 2, "vanishing": 4, "routing": 1, "capsnet": 2, "successive": 1, "lenet": 2, "succesful": 1, "ranjbar": 1, "mani": 1, "mori": 1, "greg": 1, "shift-invariant": 1, "2735-2742": 1, "negation": 1, "impactful": 1, "blind-review": 1, "darn": 3, "Mansour": 5, "disc": 5, "ben-david": 5, "kuroki": 3, "w1": 3, "d_a": 1, "okay": 1, "****": 1, "Yishay": 1, "afshin": 1, "rostamizadeh": 1, "blitzer": 2, "koby": 2, "crammer": 2, "Fernando": 2, "pereira": 2, "kulesza": 1, "Jennifer": 1, "wortman": 1, "vaughan": 1, "seiichi": 1, "nontawat": 1, "charoenphakdee": 1, "bao": 1, "junya": 1, "Honda": 1, "issei": 1, "sato": 1, "source-guided": 1, "selects": 2, "mdmn": 5, "5.4": 3, "theirs": 3, "heuristically": 1, "whichever": 1, "constantly": 3, "ever-changing": 1, "Computing": 2, "does": 1, "neuron": 12, "datta": 1, "measures": 1, "camera-ready": 2, "wrap": 1, "indicators": 2, "[...": 2, "correlations": 2, "interchangeable": 1, "cond^z_i(y": 1, "justifications": 3, "distinguishing": 1, "Problem": 1, "fifth": 1, "dg": 1, "df": 1, "caricature": 1, "fortunate": 1, "choices": 1, "print": 1, "anyhow": 1, "7-": 1, "economics": 1, "normative": 1, "self-evidently": 1, "datastream": 2, "stoc": 2, "shoved": 1, "rug": 1, "oracle-augmented": 2, "datasteam": 1, "contextualized": 5, "unanswered": 1, "ip": 4, "over-selling": 1, "'18": 1, "hitter": 1, "Bloom": 1, "kraska": 1, "Internet": 1, "traffic": 1, "auc": 8, "0.9": 2, "dnf": 1, "a1": 1, "-level": 3, "q(z": 1, "q_{\\phi}": 1, "\\pi_{\\theta": 1, "z}": 1, "18-19": 1, "aueb": 1, "michalis": 1, "rc": 1, "miguel": 1, "l\u00e1zaro": 1, "2638-2646": 1, "elaborated": 1, "subtracted": 1, "gae": 1, "stop-gradient": 1, "o": 4, "n^2": 2, "deduction": 1, "Black": 1, "grasp": 3, "objectively": 1, "Dan": 1, "ciresan": 1, "multi-column": 2, "transformer_big": 1, "kd": 2, "BT": 2, "wmt18": 4, "champion": 2, "marian": 2, "---------------------------------------------------------------------------": 3, "wmt": 1, "en->de": 1, "39.6": 1, "31.9": 1, "48.3": 1, "40.68": 1, "33.47": 1, "48.89": 1, "41.23": 1, "34.01": 1, "49.61": 1, "g_0": 3, "g_1": 1, "f_2": 1, "g_2": 1, "mcdnn": 3, "duality": 1, "winner": 1, "Vaswani": 4, "jonas": 3, "gehring": 1, "Michael": 1, "auli": 1, "grange": 1, "Denis": 1, "yarats": 1, "yann": 2, "proc.": 4, "yonghui": 1, "bridging": 1, "arxiv:1609.08144": 1, "Mia": 1, "worlds": 1, "acl": 2, "Shaw": 2, "jakob": 2, "uszkoreit": 2, "naacl": 2, "concludes": 1, "reorganization": 1, "German": 1, "wmt2014": 1, "28.4": 1, "re-implemented": 1, "27.9": 1, "1.65": 1, "tianyu": 1, "Wise": 1, "coordination": 1, "Anonymous": 1, "transformers": 2, "submitted": 1, "https://openreview.net/forum?id=hyzdrir9y7.": 1, "improper": 1, "porediction": 1, "clunky": 1, "impressed": 1, "graphrnn": 3, "generating": 3, "auto-regressive": 1, "icml2018": 1, "-picked": 1, "upgrading": 1, "ingraphrnn": 1, "overkill": 1, "runtimes": 1, "specification": 1, "multi-partite": 1, "company": 1, "social": 1, "employee": 2, "adjacency": 4, "imposes": 3, "inferring": 4, "underscores": 1, "scheduler": 1, "novelties": 1, "self-complete": 1, "Baker": 3, "Bowen": 3, "accelerating": 2, "arxiv:1705.10823": 2, "domhan": 2, "Tobias": 4, "jost": 2, "speeding": 2, "twenty": 2, "Joint": 3, "expertise": 2, "tuner": 1, "modelled": 2, "under-smoothing": 1, "over-smoothing": 1, "consequently": 5, "undertake": 2, "mescheder": 7, "gps": 1, "parametrized": 3, "tensor": 7, "non-obvious": 1, "accelerates": 1, "merscheder": 2, "6.2": 2, "non-approximated": 1, "compositional": 7, "snippet": 2, "pend": 1, "ago": 1, "pyramid": 1, "bag-of-": 1, "consecutive": 1, "prefixed": 1, "anchor": 2, "localization": 1, "jhmdb": 1, "ucf101": 1, "trecvid": 1, "Area": 1, "better": 3, "2.3": 8, "trim": 2, "complicate": 1, "untrimmed": 2, "activitynet": 2, "v1.3": 2, "lapse": 2, "flops": 10, "borrowed": 1, "asr": 10, "synergetically": 1, "wsj": 4, "timit": 3, "token": 2, "explorations": 1, "expensive-ness": 1, "-step": 1, "economical": 2, "acoustically": 1, "universally": 1, "autoseg": 2, "Lattice": 2, "mmi": 4, "vocabulary": 1, "13.5": 1, "23": 1, "favorably": 1, "vocabularies": 1, "triple": 1, "phone": 1, "schneider": 3, "lf": 2, "phoneme-": 1, "self-": 1, "middle": 3, "one-hidden": 1, "diagnostic": 2, "non-saturating": 5, "===========": 2, "124/144": 1, "clutter": 1, "fmri": 23, "nonparametric": 4, "mine": 20, "hsic": 8, "p-value": 2, "yours": 1, "berrett": 3, "samworth": 3, "non-adaptive": 1, "Independence": 3, "hoeffding": 3, "disclose": 1, "====================": 1, "pearson": 9, "threhsold": 1, "chwialkowski": 2, "real-": 4, "---------------": 1, "https://arxiv.org/abs/1711.06642": 1, "g\u00e1bor": 1, "sz\u00e9kely": 1, "Maria": 1, "rizzo": 1, "nail": 1, "bakirov": 1, "ann.": 1, "statist": 1, "35": 1, "2769-2794": 1, "qinyi": 1, "ZhangEmail": 1, "Sarah": 1, "filippi": 1, "Arthur": 4, "gretton": 4, "dino": 2, "sejdinovic": 2, "January": 1, "28": 3, "113\u2013130": 1, "---------------------": 2, "univariate": 1, "heller": 2, "Ruth": 1, "yair": 1, "29": 1, "fukumizu": 1, "Kenji": 1, "choon": 1, "teo": 1, "sch\\": 1, "o}lkopf": 1, "Bernhard": 1, "smola": 2, "http://papers.nips.cc/paper/3201-a-kernel-statistical-test-of-independence.pdf": 1, "http://proceedings.mlr.press/v70/jitkrittum17a/jitkrittum17a.pdf": 1, "wittawat": 1, "jitkrittum": 1, "zolt\u00e1n": 1, "szab\u00f3": 1, "70:1742-1751": 1, "----------------": 1, "https://papers.nips.cc/paper/5452-a-wild-bootstrap-for-degenerate-kernel-tests.pdf": 1, "Wild": 1, "Degenerate": 1, "tests": 1, "kacper": 1, "delving": 5, "thought": 5, "foremost": 1, "criticisms": 2, "invaluable": 2, "apples": 4, "ksg": 2, "Comparing": 3, "complementarity": 1, "Barrett": 1, "http://ims-vilnius2018.com/content/pdf/ivc293.pdf,": 1, "trs": 1, "i.i.d": 2, "qualify": 1, "1million": 1, "fonts": 1, "argumenting": 1, "attentively": 1, "tu": 1, "-------------------": 2, "w2": 1, "beam-search": 1, "conception": 1, "twice": 4, "asset": 1, "mirror": 1, "ax": 1, "floor": 2, "tolerated": 1, "eps_t": 6, "eps_0": 4, "ge": 1, "moitra": 1, "i.i.d.": 2, "sub-gaussian": 1, "``noise": 1, "``signal": 1, "defer": 1, "undergoes": 1, "contraction": 1, "o^": 3, "1/log": 2, "*(": 2, "a.4.": 1, "/log": 1, "meta-mapping": 3, "rejecting": 2, "refined": 1, "platanios": 2, "contextual": 3, "capitalize": 3, "lesions": 1, "supplement": 1, "parsimonious": 1, "meta-mappings": 1, "basic-meta-": 1, "untransformed": 1, "card": 1, "transforming": 1, "taskonomy": 1, "noun": 1, "hold-out": 1, "relus": 2, "up-sampling": 1, "pun": 1, "piece-wise": 2, "batch-norm": 1, "possibly": 5, "pixelwise": 2, "imposed": 1, "-dimensional": 1, "`channel": 1, "\\{": 1, "32,64,128\\": 1, "db": 2, "k=32": 1, "snr": 1, "2500": 2, "downsides": 2, "cencept": 1, "maximunm": 1, "7500": 1, "compensate": 1, "conclusive": 2, "mesh": 3, "-map": 1, "cpos": 1, "non-machine": 1, "competitors": 4, "passive": 1, "10^9": 1, "intersect": 1, "isometric": 1, "spelling": 2, "ironing": 2, "budge": 1, "chronological": 1, "pioneering": 2, "decent": 2, "darts": 7, "hazy": 1, "resposne": 1, "accommodate": 4, "delete": 2, "dso": 13, "nas": 22, "table2": 2, "importances": 1, "---------------------------------------------------------------------------------------------------------------------------": 10, "params": 2, "dso-nas-share+c/o": 1, "3.0": 4, "2.84": 2, "dso-nas": 2, "-share+c/o+k/w": 1, "2.88": 1, "dso-nas-full+c/o": 1, "2.95": 1, "dso-nas-full+c/o+k/w": 1, "2.96": 1, "cutout": 1, "enas": 3, "nvidia": 1, "ti": 1, "occlusion": 1, "foreground": 1, "densepose": 3, "tennis": 2, "fencing": 1, "dance": 1, "inner-mask": 1, "outer-mask": 1, "penalizing": 2, "inactive": 1, "v'(": 1, "p_ij": 5, "\uff1f": 1, "asap": 2, "200.000": 1, "1.000.000": 1, "http://snap.stanford.edu/data/loc-gowalla.html),": 1, "laptop": 1, "first-order": 4, "proximity": 6, "proximities": 1, "adjacent": 2, "triangle": 2, "adriaens": 1, "leeuwen": 1, "warn": 1, "posteriori": 1, "sagan": 1, "augmenting": 2, "52": 1, "orthonormal": 1, "99": 1, "re-sampled": 5, "fd": 1, "sweeps": 1, "achievement": 1, "tpu": 1, "nearest": 1, "bib": 2, "doi": 2, "url": 2, ">clarification": 1, "built-": 1, "tf.random.truncated_normal": 1, ">a": 2, "sheet": 1, "q-value": 2, "value-": 1, "conforms": 1, "processes": 1, "governed": 1, "4,5": 1, "udell": 1, "madeleine": 1, "townsend": 1, "SIAM": 3, "144-160": 1, "Mengdi": 1, "sample-optimal": 1, "q-learning": 2, "yifan": 1, "metastable": 1, "Zhuora": 1, "yuchen": 1, "zhaoran": 1, "arxiv:1901.00137(2019": 1, "devavrat": 1, "qiaomin": 1, "q-": 1, "submatrix": 1, "aggressive": 1, "principally": 1, "inspiring": 1, "advice": 2, "state-control": 1, "mutually": 1, "lower-": 1, "ddpg": 6, "velocity": 2, "t(": 2, "x_1:N": 1, "y_1:N": 1, "decomposable": 1, "x_t": 2, "y_t": 1, "i_tran^max": 1, "&Place": 4, "slide": 2, "-p": 4, "prioritization": 1, "-r": 1, "bonus": 3, "gripper": 1, "andrychowicz": 3, "marcin": 2, "filip": 1, "Wolski": 1, "Ray": 2, "Rachel": 1, "fong": 1, "welinder": 2, "Bob": 2, "mcgrew": 2, "josh": 2, "tobin": 2, "wojciech": 1, "hindsight": 2, "5048\u20135058": 1, "Glenn": 1, "pow": 1, "ell": 1, "maciek": 1, "chociej": 1, "multi-goal": 1, "ment": 1, "arxiv:1802.09464": 1, "s^i_": 2, "s^c": 2, "https://youtu.be/l5kayjwwu70?t=148,": 1, "https://github.com/misc-project/misc": 1, "dominant": 1, "subsequently": 2, "priority": 2, "td": 1, "schaul": 2, "Tom": 1, "quan": 1, "ioannis": 1, "antonoglou": 1, "Silver": 1, "prioritized": 1, "consume": 1, "super-graph": 5, "g^{sup": 1, "c^{": 4, "cat": 2, "r1a1": 2, "c^{sup}": 4, "super-class": 5, "gin": 2, "supergraph": 4, "inter-class": 2, "intra-class": 2, "c^": 3, "neatly": 1, "n-way": 2, "1000s": 1, "hampers": 1, "k-nn": 2, "sync": 1, "et~al": 1, "superclass": 5, "r1q2": 1, "g^{sup}": 3, "r1a2": 1, "dearth": 1, "sub-optimal": 1, "hypotheses": 6, "restricting": 4, "super-classes": 1, "superclasses": 1, "goodness": 2, "life-long": 1, "soundness": 1, "comparatively": 3, "meaningless": 3, "concentric": 1, "deemphasizing": 1, "disconnect": 1, "{x}_i$": 2, "x_y": 2, "Split": 1, "agility": 1, "notify": 1, "p.6": 1, "judgment": 4, "stressing": 1, "rigorously": 2, "checking": 1, "classifies": 2, "}_{\\bm{i}": 1, "rr^": 1, "\\bm{r}": 1, "\\times": 2, "bm{c}}$": 1, "100x": 1, "ensembled": 1, "punnett": 1, "scarcity": 1, "aggregate": 1, "to-single": 1, "cortes": 4, "quartic": 1, "lagrangian": 8, "h_y": 1, "h_d": 1, "sentimental": 5, "mdan": 1, "amazon": 1, "l_t": 2, "h": 5, "f_t": 3, "logically": 2, "msda": 4, "domainnet": 4, "http://ai.bu.edu/domainnet/": 1, "office-home": 1, "http://hemanthdv.org/officehome-dataset/": 1, "acs": 1, "minimizing": 1, "viable": 1, "2009a": 1, "Gy\u00f6rfi": 2, "sch\u00f6lkopf": 2, "2002": 2, "resorting": 1, "ref": 1, "kohler": 1, "krzyzak": 1, "Business": 1, "media": 2, "a.j.": 1, "bach": 1, "MIT": 1, "business": 1, "65": 1, "co-training": 2, "xiaojin": 1, "wisconsin-madison": 1, "suspicious": 1, "non-convincing": 1, "number_iterations": 1, "lifelong": 1, "21.44": 1, "18.97": 1, "ex.": 1, "exp": 8, "sigma(": 1, "f_k": 1, "f_j-1(": 1, "f_j+1(": 1, "exp(": 1, "f_": 1, "\u2212": 1, "\u22124": 1, "800": 1, "22.27": 1, "18.27": 1, "4306.8": 1, "17.84/2,338.8": 1, "25": 1, "18.35": 1, "3350.4": 1, "18.38": 1, "1470.0": 1, "18.72": 1, "2580.0": 1, "19.04": 1, "811.2": 1, "20.33": 1, "1711.2": 1, "20.07": 1, "315.6": 1, "20.71": 1, "864.0": 1, "20.24": 1, "34.89": 1, "38.65": 1, "11.82": 1, "10.55": 1, "6.88": 1, "pretraining": 4, "nearby": 1, "chemistry": 5, "biology": 5, "pity": 1, "3.1.1": 1, "satement": 1, "our": 2, "\u200bresults": 1, "\u200b": 1, "\u200bare\u200b": 2, "\u200bsolid\u200b": 2, "\u200band\u200b": 1, "\u200bour\u200b": 1, "\u200banalysis\u200b": 1, "\u200bis\u200b": 1, "\u200bthorough": 1, "privately": 1, "k-hop": 1, "inefficiency": 2, "deform": 1, "la": 3, "foldingnet": 2, "deepsdf": 6, "compose": 3, "subapplications": 1, "cryo-EM": 1, "shrink": 1, "synthesizes": 1, "deficiency": 1, "functional": 2, "exceedingly": 1, "coomputation": 1, "se": 2, "memorizing": 3, "soundly": 2, "completion": 3, "deemphasized": 2, "shold": 2, "visualizing": 2, "normals": 2, "hof": 26, "deformation": 2, "generalizable": 2, "composable": 5, "competitively": 2, "chamfer": 3, "promote": 1, "tatarchenko": 4, "richter": 3, "ranftl": 3, "koltun": 3, "brox": 3, "3405": 3, "3414": 3, "uncertainties": 8, "covariates": 1, "penalize": 1, "deviating": 2, "inflate": 2, "p(\\theta": 3, "stochastically": 1, "mn": 1, "retain": 3, "hmc": 1, "Jensen": 1, "e_p": 1, "ln": 1, "p(y": 2, "govern": 1, "afford": 2, "weighting": 3, "unfairly": 1, "==========": 2, "conjunction": 2, "vmg": 2, "https://github.com/amlab-amsterdam/sevdl_mgp)": 1, "catching": 2, "adadelta": 1, "preconditioned": 1, "pxp": 3, "pxr": 2, "rxr": 3, "rx1": 1, "computations": 1, "apriori": 1, "@Update": 1, "per-iteration": 6, "backprops": 1, "@switching": 1, "sparingly": 1, "cliparts": 1, "x_test": 1, "qualified": 2, "``meta": 1, "bsd500": 1, "office-": 2, "bsd": 1, "render": 1, "visDA": 1, "protonet": 1, "meta-testing": 1, "qualifying": 1, "advertising": 3, "misinterpretation": 1, "harsh": 1, "meta-": 3, "renaming": 1, "revgrad": 1, "visda": 1, "synthetic-real": 1, "crawn": 1, "ganin": 2, "yaroslav": 2, "Research": 3, "17.1": 2, "2096-2030": 2, "addressing": 1, "home": 1, "domain-shift": 1, "oov": 1, "substantiated": 3, "adversaries": 4, "sigmoids": 1, "a-cnn": 2, "over-generalization": 1, "devise": 1, "remainder": 1, "non-transferable": 1, "azimuthally": 4, "deem": 2, "circularly": 1, "geodesic": 2, "icosahedral": 4, "lat": 1, "lon": 1, "carving": 1, "planar": 2, "funny": 1, "nu": 6, "alt": 8, "rz(": 3, "ry": 4, "Rz(omega": 3, "closure": 2, "violated": 1, "l": 7, "rr": 2, "scalars": 3, "impossibility": 1, "is*": 1, "z-axis": 2, "jarring": 1, "south": 4, "coordinates": 2, "pi.": 1, "topologically": 1, "quotient": 4, "rewriting": 1, "speculative": 1, "so3": 3, "d_r^": 1, "d_r": 1, "reverse": 1, "inverting": 1, "rationally": 1, "rotationally": 1, "unpacking": 1, "hexagonal": 3, "deferent": 1, "inspite": 1, "reprort": 1, "utlize": 1, "elegance": 1, "wholeheartedly": 1, "kondor": 1, "trivedi": 1, "isomorphic": 1, "ill-definition": 1, "\\phi=0": 1, "\\theta=0": 2, "\\theta=\\pi$": 1, "altitude": 1, "azimuth": 1, "\\theta=pi": 1, "\\neq": 1, "azimuthal": 3, "tentative": 1, "alt-azimuth": 1, "unitary": 1, "************************************************": 1, "\\begin{equation": 1, "\\begin{aligned": 1, "\\star": 3, "\\\\": 5, "\\int_": 1, "d_rh": 1, "{u}": 12, "q^{": 1, "1}\\hat": 1, "ds": 3, "=\\int_": 3, "s^2}h(": 2, "r^{-1}\\hat": 1, "q^{-1}\\hat": 1, "ds(": 1, "r^": 1, "{-1}q\\hat": 1, "s^2}h": 1, "1}r": 2, "^{-1}\\hat": 1, "=(": 1, "\\end{aligned": 1, "\\end{equation": 1, "**************************************************": 1, "north": 1, "icosahedron": 2, "convolve": 2, "angular": 1, "harmonic": 2, "y_l^m": 1, "f$": 1, "re-designing": 1, "underperforms": 1, "to-one": 1, "-free": 1, "lossless": 1, "estate": 1, "coarse-to-fine": 1, "http://hhoppe.com/proj/sphereparam/).": 1, "authalic": 2, "sinha": 1, "remeshing": 1, "unsolved": 1, "q8": 1, "desiderata": 1, "+tests": 1, "extant": 3, "workbooks": 5, "verdict": 1, "emlnp": 1, "Word": 1, "problems": 1, "elementary": 1, "physically": 3, "investment": 2, "commend": 1, "exam": 2, "thinkings": 1, "+...+": 1, "spits": 1, "algebraic": 2, "unambiguous": 1, "freeform": 3, "entailment": 3, "boolean": 1, "satisfiability": 1, "solicit": 1, "legal": 1, "permission": 1, "redistribute": 1, "copyright": 1, "school-": 1, "examinations": 1, "achievable": 3, "p/n": 1, "phrased": 1, "symbolic": 1, "inbuilt": 1, "template": 3, "calculator": 1, "rmc": 1, "slot-based": 1, "unlearnable": 1, "150k": 1, "46": 1, "51": 1, "re-running": 1, "directed": 1, "acyclic": 1, "subgraph": 1, "pham": 2, "2018a": 1, "l2-regularization": 1, "W": 12, "l1-sparsity": 1, "specifies": 1, "accelerated": 2, "apg": 2, "expense": 1, "flop": 2, "honestly": 2, "incorporating": 1, "m=4": 2, "120": 1, "mnasnet": 10, "4.4.1": 1, "sgdr": 1, "restarts": 1, "https://arxiv.org/pdf/1608.03983.pdf": 1, "platform": 2, "mobile": 2, "https://arxiv.org/pdf/1807.11626.pdf": 2, "pretrain": 2, "224": 1, "non-smooth": 1, "sss": 2, "friendly": 1, "reviewer3": 1, "simplifying": 2, "pt": 5, "arxiv:1905.13728": 1, "non-pretraining": 1, ":1905.13728": 3, "shall": 4, "extracting": 1, "domain-specific": 3, "reimplementing": 1, "implementational": 1, "abundant": 1, "mac": 4, "film": 2, "tree-structured": 2, "predictable": 3, "articulate": 1, "rigor": 3, "edits": 1, "shock": 1, "comparably": 1, "jonshon": 1, "filter_": 1, "...[...]": 1, "susceptible": 1, "nowadays": 1, "announce": 1, "reevaluates": 1, "Johnson": 1, "uninteresting": 1, "exclusively": 4, "icml17": 8, "Super": 3, "mario": 3, "pong": 2, "testbeds": 10, "juggling": 1, "ant": 2, "Unity": 1, "testbed": 3, "end-state": 1, "ostensibly": 1, "leans": 1, "minimally": 1, "parthak": 3, "analytical": 3, "inconclusive": 1, "non-controversial": 1, "pull": 2, "narrative": 4, "novelly": 1, "roboschool": 1, "Mirowski": 4, "navigate": 1, "environments": 1, "iclr17": 3, "dump": 1, "simulators": 1, "honeypots": 1, "bunch": 1, "evaluating": 1, "trustworthiness": 1, "7/10": 2, "4/10": 1, "conversation": 2, "5/10": 1, "methodological": 1, "ridiculous": 1, "ambivalent": 1, "casual": 2, "explainable": 2, "ostensible": 1, "dealing": 2, "fatal": 2, "popularity": 2, "visibility": 2, "reproducible": 1, "-ups": 1, "anonymity": 2, "insofar": 1, "stimulates": 1, "health": 1, "vivid": 1, "incentivizing": 1, "reachability": 1, "designer": 2, "architects": 1, "urban": 1, "planner": 1, "gardener": 1, "purposefully": 1, "curricula": 1, "lazzaro": 1, "jaderberg": 1, "privileged": 2, "loop": 4, "extrinsic-reward": 1, "concerted": 1, "casts": 1, "conducts": 2, "harmful": 1, "daeyoung": 1, "wonjong": 1, "Rhee": 1, "https://arxiv.org/abs/1809.09307)": 1, "cw": 3, "VR": 1, "l1r": 1, "wolfe": 18, "fixing": 1, "kurakin": 1, "0%/100": 1, "unfavourable": 1, "incentive": 2, "fw": 7, "overshot": 1, "zeroth-order": 3, "alg.": 1, "t>1": 1, "x_orig": 1, "affine": 3, "a^2": 1, "4.8": 1, "acc": 1, "wrongfully": 1, "telescope": 1, "telescopic": 1, "500000": 1, "V2": 2, "supplemental": 4, "tighten": 6, "ahead": 1, "re-parameterize": 1, "Jaggi": 1, "lacoste-julien": 4, "fidelty": 1, "unreasonable": 1, "counterfactual": 2, "penalities": 2, "likewise": 1, "-perform": 1, "grand": 1, "elucidate": 1, "IL": 1, "excited": 1, "underconfident": 1, "non-mcar": 4, "fresh": 1, "eqn.": 2, "concatenated": 1, "non-observed": 1, "reconstructions": 4, "crux": 2, "validated": 2, "vaeac": 11, "4.3.3": 1, "mcar": 3, "mice": 1, "missforest": 1, "phishing": 3, "0.24": 1, "0.394": 1, "mushroom": 3, "0.403": 1, "0.244": 1, "Glass": 1, "boldfaced": 1, "x_u": 1, "0.245(0.002": 1, "0.399": 1, "0.011": 1, "0.237(": 1, "0.001": 2, "0.396(": 1, "0.008": 1, "bimodal": 1, "0.455(": 1, "0.003": 1, "yeast": 2, "1.312(0.021": 1, "glass;0.1376(0.0002": 1, "0.1198(0.0001": 1, "0.878(0.006": 1, "1.846(0.037": 1, "glass;0.1402(0.0001": 1, "0.2126(0.0031": 1, "miwae": 4, "c.4": 1, "mar": 1, "nmar": 1, "figure.7": 1, "bone": 1, "rmse": 1, "mattei": 1, "abductive": 21, "shortcoming": 1, "irresponsible": 1, "gpt": 3, "88": 1, "91.4": 1, "abduction": 2, "formulating": 1, "anonreviewer3": 1, "crowdsourced": 2, "inadvertently": 1, "leak": 1, "overestimation": 2, "inventing": 1, "68.9": 1, "68.6": 2, "89.4": 1, "ft": 1, "connected": 1, "re.": 4, "task1": 1, "task2": 1, "o1": 2, "Kelly": 1, "friend": 1, "city": 1, "o2": 2, "timetable": 1, "station": 1, "reliance": 1, "explanatory": 4, "gururangan": 2, "poliak": 2, "tsuchiya": 2, "textual": 2, "sakaguchi": 2, "winogrande": 2, "winograd": 2, "gg^t": 2, "\u00bd": 2, "r*r": 1, "multiplications": 2, "r*d": 1, "noteworthy": 2, "b.1": 2, "offset": 1, "relegated": 1, "straddle": 1, "favored": 1, "more-": 1, "-superficial": 1, "resemblance": 1, "@wall-": 1, "disentangle": 1, "retune": 1, "@l": 1, "bfgs": 1, "l-bfgs": 2, "quasi-newton": 3, "niche": 1, "rates": 1, "acceleration": 1, "strategies": 1, "haskell": 1, "tan.": 1, "Byrd": 1, "hansen": 1, "nocedal": 1, "carmon": 1, "hinder": 1, "sidford": 1, "minima": 2, "Allen": 1, "bullins": 1, "ma.": 1, "contemporary": 2, "nelder": 2, "mead": 2, "vgg11": 3, "-10/100": 4, "decaying": 2, "custom": 5, "94": 2, "74": 2, "sgdm": 10, "--------------------------+--------------+---------------+": 1, "92.97": 1, "72.69": 1, "92.77": 1, "72.53": 1, "decayed": 3, "93.29": 1, "73.45": 1, "93.53": 1, "73.80": 1, "sgd-apo": 1, "93.82": 1, "74.65": 1, "sgdm-apo": 1, "94.59": 1, "73.89": 1, "73": 1, "shown": 1, "separates": 1, "inter-subject": 1, "worry": 2, "out-": 1, "th": 5, "asymptotically": 1, "\\tilda{": 1, "theta}": 1, "mime": 3, "switchs": 1, "danger": 1, "-f-ES": 3, "hyperopt": 1, "demine": 10, "ayd\u00f6re": 1, "alg": 1, "acronyms": 2, "tcpc": 1, "tldr": 1, "noble": 1, "rho=0.0": 1, "-f": 2, "overshooting": 1, "chart": 1, "estimations": 2, "don't": 1, "3000": 1, "1500": 4, "crossval": 1, "x,": 1, "m1": 4, "m2i,u": 3, "eq.8": 1, "-2std": 1, "sig": 1, "m2,": 1, "m3": 1, "-v.": 1, "-ord": 2, "looser": 1, "rubric": 1, "concisely": 1, "biological": 3, "odd-": 1, "49d": 1, "3,5": 1, "typicality": 1, "cluster": 1, "creation": 1, "interactive": 1, "Fine": 2, "categorization": 2, "http://ttic.uchicago.edu/~smaji/papers/similarity-cvpr14.pdf;": 1, "https://arxiv.org/abs/1603.07810": 1, "Point": 3, "wah": 1, "c_i": 1, "c_j": 1, "c_l": 1, "positivity": 1, "veit": 1, "few-host": 1, "per-example": 3, "sigma-i": 2, "q-query": 1, "k=5": 1, "nx": 1, "80x80": 2, "100x100": 2, "f_{\\varphi}": 1, "x_i": 3, "g_{\\phi}": 1, "53.05/68.75": 1, "53.75/69.43": 1, "liang": 2, "de-ming": 1, "yu-feng": 1, "lightweight": 1, "ijcai": 1, "fujiwara": 1, "Yasuhiro": 1, "Weston": 1, "Jason": 1, "useless": 3, "exiting": 1, "trivially": 2, "dilated": 2, "ongoing": 1, "voc": 3, "3x3": 1, "5x5": 1, "cls": 1, "seg": 2, "miou": 1, "-cls": 1, "72.1": 1, "13.0": 1, "72.7": 1, "6.7": 1, "13.2": 1, "deeplab": 1, "v3": 1, "frank-": 2, "inceptionv3": 1, "6x": 1, "20x": 1, "vs-distortion": 1, "paint": 1, "ilyas": 1, "capitalizes": 1, "commendable": 1, "blurriness": 2, "attributable": 2, "traverse": 1, "sell": 2, "prioritize": 4, "per-pixel": 3, "q(x": 1, "retraction": 1, "well-": 1, "opt": 1, "expressiveness": 2, "dead": 3, "coincidence": 1, "ion": 1, "alessandro": 1, "achille": 1, "stefano": 1, "soatto": 1, "disentangling": 2, "bim": 2, "520": 1, "ead": 2, "y_{tar}": 4, "$y": 1, "y_{tar": 1, "\\|\\nabla": 1, "c_g": 1, "x_a": 1, "theta_i": 1, "argmin": 2, "lmo": 3, "\\in$": 1, "Oracle": 1, "linearize": 1, "fgsm^k": 1, "\\lambda$": 1, "y_{": 1, "tar}": 1, "shifting": 1, "resnet-based": 1, "hq": 1, "lsun": 1, "excitation": 1, "self-interaction": 1, "injection": 4, "spirit": 2, "tempt": 2, "z-conditioning": 1, "concatenates": 1, "focusses": 1, "broadly": 1, "channel-": 1, "element-wise": 1, "locality": 1, "re-weighting": 1, "skip-connection": 1, "advocated": 1, "disagreement": 1, "-aware": 1, "falsified": 2, "liaison": 2, "cross-disciplinary": 2, "affinity": 2, "unfamiliar": 1, "multi-objective": 1, "cart-pole": 2, "locomotion": 3, "pseudocode": 3, "burdensome": 1, "elevating": 1, "langevin": 9, "stein": 2, "repulsive": 1, "auto-correlation": 3, "eliminates": 1, "svgd": 3, "discrete-time": 1, "c_\\eta": 1, "dentition": 2, "\\rho}_k^m": 2, "\\theta_k": 1, "^I": 1, "{\\delta}_k^m": 1, "\\theta_k^k": 1, "\\rho": 1, "m$": 6, "\\infty": 2, "discrete-": 1, "c_\\eta$": 4, "\\to\\infty": 2, "\\rho}_k": 1, "\\rho}_k^": 1, "\\rho_k^": 1, "revisited": 1, "m\\to\\infty": 1, "mc_\\eta$": 1, "\\lim_{k": 1, "d}_{\\text": 1, "bl": 1, "\\rho_k": 1, "\\rho^": 1, "k\\eta\\to\\infty": 1, "\\exp": 1, "C\\alpha^": 1, "{2}k\\eta": 1, "\\eta^{2}=o": 1, "k\\eta": 1, "Mc": 1, "=q": 1, "\\leq": 1, "q>1": 1, "notification": 1, "bottlenecks": 1, "boils": 1, "-noise": 1, "\\theta$": 2, "\\tilde\\theta$": 1, "https://arxiv.org/abs/1511.05219": 1, "https://arxiv.org/abs/1705.07809": 1, "https://arxiv.org/abs/1712.07196": 1, "https://arxiv.org/pdf/1605.02277.pdf": 1, "https://arxiv.org/abs/1710.05233": 1, "https://arxiv.org/pdf/1706.00820.pdf": 1, "-theoretic": 2, "alter": 2, "fleshed": 1, "rename": 3, "\\tilde\\theta": 4, "\\tilde\\mu": 5, "noise-": 5, "p\u2019": 3, "hereby": 3, "noise-corrupted": 2, "g.": 1, "calculations": 1, "point-mass": 1, "relatedly": 1, "backpropamine": 1, "hebbian": 9, "neuromodulatory": 3, "synapse": 2, "retroactively": 1, "synaptic": 1, "cue-award": 2, "non-plastics": 1, "unfounded": 1, "melor": 1, "undermine": 1, "synapses": 5, "matched": 1, "bahdanau": 2, "adhere": 1, "fulfill": 1, "reimplement": 1, "re-implementing": 1, "re-training": 1, "weave": 1, "merity": 2, "re-implement": 1, "10x": 1, "intrinsically": 1, "optimizations": 1, "bespoke": 1, "python": 1, "reimplementation": 1, "sizable": 1, "next-": 1, "philosophically": 1, "dedicate": 1, "necessity": 1, "insisting": 1, "p-hacking": 1, "shoddy": 1, "unintentionally": 1, "parameters": 1, "equalize": 1, "non-trainable": 1, "homogenous": 1, "s.3": 1, "ample": 2, "self-contained": 3, "codomain": 1, "qualities": 1, "validness": 2, "wikitext": 1, "ppw": 1, "uncompressed": 2, "----------------------------------------------------------------------------------": 2, "Compression": 1, "------------------------------": 1, "---------------------------": 1, "11.5": 1, "12.2": 2, "11.4": 2, "vwm": 1, "12.4": 1, "overfitted": 1, "doubted": 1, "-lay": 1, "pervasive": 1, "asterisk": 1, "mitosis": 4, "exhaustively": 2, "shim": 2, "moe": 17, "d-softmax": 3, "1x": 5, "sparsly": 1, "\u03b3": 1, "sub": 1, "inherited": 1, "round": 1, "w^e": 1, "w^g": 1, "DS": 6, "adaptive-softmax": 1, "meta-generator": 1, "sub-category": 1, "optimisers": 1, "automating": 1, "apt": 1, "assuming": 2, "\\nabla": 6, "perpendicular": 4, "rayleigh": 1, "L(": 1, "w\u2019*": 2, "a*w": 1, "2/w\u2019*w": 3, "aw": 4, "||w": 1, "g_g": 1, "w": 7, "2/w": 1, "w\u2019aw": 1, "F(": 2, "g_t^": 3, "recursion": 1, "20000": 1, "commonsense": 5, "200000": 1, "invites": 1, "nli": 7, "rte": 1, "e-snli": 5, "\u03b1": 1, "-ness": 1, "snli": 1, "e-": 1, "Chad": 4, "Barry": 3, "h1": 1, "chat": 1, "h2": 3, "e-abductive": 1, "co-located": 2, "meeting": 1, "foster": 1, "12234": 1, "curation": 1, "curate": 1, "viably": 1, "neural-": 1, "hyperparamters": 1, "repetition": 1, ".1": 1, "col": 1, "shortly": 1, "one-time": 1, "summarizes": 1, "muv": 2, "74.9": 1, "3.8": 1, "84.8": 1, "88.8": 1, "12x": 1, "masking": 1, "Edge": 2, "infomax": 1, "evidently": 1, "convencing": 1, "sharpness": 2, "hyperpaparameter": 1, "1.a": 4, ".b?": 1, "trail": 1, "1b": 1, "flatness": 1, "interchangeably": 1, "confusable": 1, "cpe": 1, "cpl": 1, "deepojs": 1, "samplings": 1, "Smith": 3, "https://arxiv.org/abs/1710.06451": 1, "Decay": 1, "https://arxiv.org/abs/1711.00489": 1, "laarhoven": 1, "https://arxiv.org/abs/1706.05350": 1, "https://openreview.net/forum?id=b1g8vkhfph": 1, "envisage": 1, "10^1": 1, "10^5": 1, "faulty": 1, "lrs": 1, "prescriptions": 1, "1.b": 1, "rightly": 1, "landscapes": 1, "hypothetical": 1, "1.b.": 1, "1a": 4, "Asi": 1, "stepsize": 1, "stepsizes": 1, "adamlr": 1, "discovering": 1, "meaningfully": 1, "object-": 1, "robot-object": 1, "primitive": 2, "actuator": 2, "wheel": 2, "https://youtu.be/l5kayjwwu70?t=134": 1, "combinable": 1, "Benjamin": 1, "eysenbach": 1, "abhishek": 1, "gupta": 1, "Julian": 1, "ibarz": 1, "https://openreview.net/forum?id=sjx63jrqfm.": 1, "progressively": 1, "2.0": 2, "organization": 1, "end-to-end": 1, "plug-and": 2, "mvqa": 3, "incapable": 1, "facilitates": 1, "feeding": 1, "ground-": 1, "human-": 1, "pinpoint": 1, "drqa": 1, "repeats": 1, "entnet": 3, "e_{i": 3, "lambda_": 3, "v_i": 3, "recipe": 2, "60k": 2, "p/r": 2, "d-dimensional": 1, "i\u2019": 1, "summing": 1, "encodings": 1, "groundtruth": 2, "micro": 1, "tandon": 1, "script": 1, "pointclouds": 1, "succession": 1, "->3d": 1, "reconstructs": 1, "-mesh": 1, "refinement": 1, "path-": 1, "areas": 1, "cog.": 1, "sci": 1, "wo": 1, "standardized": 1, "iou": 1, "CD": 2, "pixel2": 1, "Fu": 1, "meshcnn": 1, "hanocka": 1, "hertz": 1, "Fish": 1, "giryes": 1, "fleishman": 1, "or.": 1, "siggraph": 1, "geometrics": 1, "graph-encoded": 1, "fujimoto": 1, "romero": 1, "meger": 1, "a8": 1, "breakdowns": 1, "fast-": 1, "fast-weights": 1, "chamf": 3, "1024": 1, "1.2485": 1, "1.247": 3, "lvc": 1, "rectifiers": 2, "surpassing": 2, "human-level": 2, "content-": 1, "key-value": 2, "retention": 1, "renormalization": 1, "aliasing": 2, "associative": 3, "bAbi": 3, "adaptions": 1, "session": 2, "-value": 1, "43": 1, "non-toy": 1, "universal": 1, "rae": 1, "el": 1, "at.": 1, "performant": 1, "16.7": 1, "\\pm": 3, "7.6": 1, "-md": 1, "1.6": 1, "smaller": 1, "communicate": 2, "mds": 1, "dm": 2, "3.1-": 1, "--------------": 1, "enhancements": 1, "impute": 1, "uci": 1, "larger-scale": 1, "vcr": 1, "video-": 2, "tensor-based": 1, "found": 1, "translations": 1, "Series": 1, "vase": 1, "-mosi/ict-mmmo": 1, "v.s.": 3, "per-epoch": 1, "decoration": 1, "-------------------------------------------------------------": 1, "newton": 1, "decorate": 2, "0.0001": 1, "grid-search": 1, "fac": 1, "meta-optimization": 3, "amortize": 1, "meta-update": 1, "k=10": 1, "accelerate": 3, "1e-3": 1, "1e-": 1, "trouble": 2, "bacause": 1, "popularly": 2, "dpi": 6, ">=": 3, "\\theta}": 8, "<-": 2, "-------------------------------------": 2, "interleave": 1, "mitigating": 1, "Lagrange": 1, "multipliers": 3, "swing": 1, "quadruped": 2, "minitaur": 1, "theorists": 1, "roboticists": 1, "altman": 1, "cart-": 1, "avoids": 3, "bang-": 2, "bang": 4, "state-dependent": 3, "q_r(": 1, "pg.": 2, "thedse": 1, "pointwise": 1, "per-state": 1, "recombining": 1, "-conditional": 1, "cartpole": 2, "incl.": 1, "swingup": 2, "claims": 1, "worded": 1, "occupancy": 1, "displaces": 1, "shapenet": 2, "brabandere": 1, "weather": 1, "riegler": 1, "densely": 1, "c-dimensional": 1, "c?": 1, "tab.": 1, "tab": 2, "booktab": 1, "latex": 1, "varying": 1, "1.369": 1, "1.195": 1, "gridding": 1, "c=4": 1, "+3": 1, "worsen": 1, "trend": 1, "==============final": 1, "evaluation================": 1, "mckay": 1, "Chapter": 1, "41": 1, "carve": 1, "unconvinced": 1, "==================": 1, "``attack": 1, "figuring": 1, "signature": 1, "assertion": 2, "capcity": 1, "yfcc100": 1, "161": 1, "14.7": 2, "float32": 2, "470.4": 1, "-n": 2, "``unsee": 2, "``memorization": 3, "bly": 1, "l\u00e9onard": 1, "ollivier": 1, "cs.lg": 1, "http://arxiv.org/abs/1802.07044": 1, "purple": 1, "1/10": 1, "k-s": 1, "m-set": 1, "61.14": 1, "finer-": 1, "??": 1, "advancement": 1, "website": 1, "internet": 1, "cifar10.1v6": 1, "model-agnostic": 1, "http://people.csail.mit.edu/torralba/tinyimages/": 1, "long-range": 1, "clip-level": 1, "36": 1, "clip": 1, "holistic": 3, "enormous": 1, "uxtxhxw": 1, "height": 1, "kt": 3, "Block": 1, "v1": 1, "430": 1, "860": 1, "kl-minimization": 1, "case-study": 1, "equilibria": 1, "regret": 1, "reside": 1, "forall": 1, "p1": 2, "pinker": 1, "pinsker": 1, "c_r": 1, "reactive": 1, "deepmind": 1, "state-space": 2, "mve": 8, "steve": 6, "q-values": 1, "acer": 1, "renders": 1, "rollout": 1, "optimistic": 1, "bellman": 1, "satisfactorily": 1, "parcus": 6, "spaces": 1, "computes": 1, "soft-matching": 1, "so-called": 1, "low-resource": 3, "hatespeech": 3, "spouse": 4, "moviereview": 4, "tweets": 1, "lengthy": 1, "graph-neural": 1, "swim": 1, "submodule": 1, "-Sims-AF": 1, "ess-gm-uc": 1, "1804": 1, "doubly": 2, "load": 1, "shazeer": 1, "-hierarchy": 1, "21": 1, "st": 1, "4th": 1, "sparse-gated": 1, "_____________________________________________": 2, "0.257": 1, "0.448": 2, "0.530": 3, "-8": 1, "0.258": 4, "-16": 2, "0.450": 3, "0.529": 3, "5.13": 1, "0.449": 2, "-32": 1, "0.259": 2, "9.43": 1, "moe-32": 1, "0.531": 2, "-64": 2, "15.99": 1, "0.260": 1, "0.451": 1, "z|c": 1, "c|z": 1, "unnormalized": 2, "plug": 1, "selectively": 1, "dt": 3, "implmented": 1, "--\u201c": 1, "cardinality": 1, "resp": 1, "\\displaystyle\\sum_": 2, "{\\mathrm{z}}\\hat{q}\\mathrm": 2, "{(": 9, "mathrm{log}\\": 2, "frac{\\hat{q}\\mathrm": 2, "}}{": 3, "\\hat{p}\\mathrm": 6, "displaystyle\\sum_": 1, "\\bigg": 1, "\\mathrm{log}\\": 4, "frac{\\hat": 1, "{p}\\mathrm": 3, "bigg": 1, "\\mathrm{z}}": 1, "{q}\\mathrm": 1, "\\mathrm{log": 1, "\\hat{q}\\mathrm": 3, "\\mathbb{e}_{q_{\\theta}\\mathrm": 2, "}}[": 4, "p_{\\theta": 2, "d_{kl": 2, "q_{\\theta}\\mathrm": 2, "p\\mathrm": 1, "mathbb{": 2, "e}_{q_{\\theta}\\mathrm": 2, "\\mathrm{log}\\hat": 1, "{p}_{\\phi": 2, "{q}_{\\phi}\\mathrm": 1, "rtf": 1, "stably": 1, "class-specific": 1, "redundancy": 1, "dim": 3, "Notations": 1, "commenting": 1, "espace": 1, "mechanical": 2, "iterated": 2, "proofreading": 2, "identification": 1, "cascades": 1, "aistats": 1, "transmission": 1, "whatever": 1, "whom": 2, "bourigault": 1, "infector": 3, "i_i|d_{\\leq": 1, "i_i": 2, "clue": 1, "intrication": 1, "likelihoods": 1, "serveral": 1, "typescript": 4, "specialised": 1, "typing": 2, "compiler": 1, "draws": 1, "hindley": 1, "milner": 1, "subtyping": 1, "hyperedges": 1, "crawled": 2, "lopes": 2, "d\u00e9j\u00e0vu": 2, "github": 2, "javascript": 2, "jscpd": 1, "https://github.com/kucherenko/jscpd": 1, "2.7": 1, "duplicated": 1, "intra-project": 1, "========": 1, "we\u2019ll": 2, "extensions": 1, "n_l": 1, "n_": 1, "x_i's": 1, "untrainable": 1, "reconcile": 1, "safely": 1, "dictate": 1, "https://arxiv.org/abs/1712.08969)": 1, "technics": 2, "tween": 1, "plaisant": 1, "bernardo": 2, "https://arxiv.org/pdf/0904.0156)": 2, "theoery": 1, "shanon": 1, "analogies": 1, "reinterpretation": 1, "pleasant": 1, "reinterpreting": 1, "annealing": 1, "per-sample": 1, "preference": 1, "mitigation": 1, "disentanglement": 1, "beta-": 1, "non-map": 1, "Fisher": 2, "bowman": 1, "vilnis": 1, "jozefowicz": 1, "arxiv:1511.06349": 1, "Ahmed": 1, "taiga": 1, "visin": 1, "vazquez": 1, "courville": 1, "pixelvae": 1, "arxiv:1611.05013": 1, "burgess": 1, "higgins": 1, "matthey": 1, "watters": 1, "desjardins": 1, "lerchner": 1, "beta-VAE": 1, "arxiv:1804.03599": 1, "ly": 1, "marsman": 1, "verhagen": 1, "grasman": 1, "wagenmakers": 1, "tutorial": 1, "Mathematical": 1, "psychology": 1, "to-sequence": 1, "arithmetic": 1, "calculus": 1, "duplicate": 1, "un-standard": 1, "parsed": 2, "attentional": 3, "freefrom": 1, "unstructured": 1, "lieu": 1, "tailor": 1, "decoder+attention": 1, "prevalent": 1, "confusingly": 1, "parser": 1, "grounds": 1, "meta-learn": 1, "elementwise": 1, "input-dependent": 1, "generlization": 1, "doubled": 2, "param": 1, "omni-1": 1, "omni-5": 1, "mimg": 1, "mimg-5": 1, "x1": 1, "95.23+-0.17": 1, "98.38+-0.07": 1, "49.58+-0.65": 1, "64.55+-0.52": 1, "x2": 3, "x4": 1, "94.96+-0.16": 1, "98.36+-0.08": 1, "48.19+-0.64": 1, "65.84+-0.52": 1, "meta-sgd": 2, "96.16+-0.14": 1, "98.54+-0.07": 1, "48.30+-0.64": 1, "65.55+-0.56": 1, "96.63+-0.13": 1, "98.73+-0.06": 1, "51.93+-0.67": 1, "67.42+-0.52": 1, "chx2": 2, "meta-learned": 1, "shift-equivalent": 2, "reconstructing": 1, "orignal": 1, "classifiation": 1, "reconstruct": 1, "mislead": 1, "ladder": 1, "nips2015": 1, "celeb-a": 1, "intensively": 2, "showing": 2, "misinterpreted": 1, "\u2022": 3, "intimately": 1, "orient": 1, "kendall": 1, "kohl": 1, "S.A.": 1, "romera-paredes": 1, "Meyer": 1, "fauw": 1, "j.d.": 1, "ledsam": 1, "j.r.": 1, "maier-hein": 1, "k.h.": 1, "eslami": 1, "d.j.": 1, "ronneberger": 1, "U-Net": 1, "enclose": 1, "**)": 1, "kendall2017a": 1, "kendall2019": 1, "kohl2018": 1, "a}": 1, "3.1*": 1, ".**": 1, "mechanic": 1, "near-linear": 1, "2line": 1, "delta": 5, "p.3": 1, "randomized": 2, "delta_{a": 1, "b}": 1, "savy": 1, "http://www.cv-foundation.org/openaccess/content_iccv_2015/html/he_delving_deep_into_iccv_2015_paper.html)": 1, "teh": 1, "titterington": 1, "http://proceedings.mlr.press/v9/glorot10a.html)": 1}, "bert_vocab": {"this": 2037, "paper": 1390, "develops": 4, "a": 3867, "framework": 73, "for": 2739, "evaluating": 28, "the": 14594, "ability": 29, "of": 5515, "neural": 311, "models": 321, "on": 1756, "answering": 9, "free": 35, "-": 7635, "form": 66, "mathematical": 40, "problems": 174, ".": 13130, "contributions": 67, "are": 1633, "i": 1160, ")": 3072, "publicly": 1, "available": 39, "data": 951, "##set": 455, ",": 9212, "and": 4283, "ii": 41, "an": 730, "evaluation": 166, "two": 294, "existing": 105, "model": 710, "families": 3, "rec": 58, "##urrent": 38, "networks": 310, "transform": 42, "##er": 93, "think": 182, "that": 2691, "makes": 118, "good": 188, "contribution": 145, "by": 776, "establishing": 4, "bench": 65, "##mark": 47, "providing": 25, "some": 423, "preliminary": 17, "results": 630, "am": 95, "biased": 6, "because": 176, "once": 16, "did": 139, "exactly": 48, "same": 242, "thing": 18, "as": 1564, "although": 107, "at": 427, "much": 199, "smaller": 44, "scale": 88, ";": 203, "thus": 135, "happy": 25, "to": 5470, "see": 281, "such": 354, "public": 15, "is": 4239, "reasonable": 43, "/": 789, "analysis": 155, "whether": 76, "accept": 22, "it": 1660, "or": 544, "not": 1451, "depends": 30, "what": 304, "standard": 125, "ic": 126, "##lr": 85, "has": 281, "towards": 24, "papers": 60, "(": 2884, "ones": 31, "do": 309, "propose": 72, "new": 243, "theory": 53, "generation": 56, "process": 71, "well": 379, "thought": 13, "out": 295, "there": 443, "large": 175, "variety": 19, "modules": 37, "trying": 32, "generate": 45, "either": 47, "trivial": 30, "impossible": 12, "plus": 10, "in": 4522, "my": 104, "opinion": 20, "discussions": 19, "main": 205, "part": 87, "too": 79, "light": 16, "average": 55, "accuracy": 195, "across": 54, "interesting": 268, "metric": 68, "all": 378, "does": 312, "show": 245, "performs": 64, "better": 339, "than": 429, "authors": 530, "should": 344, "move": 9, "portion": 4, "big": 29, "bar": 12, "plot": 29, "low": 82, "resolution": 15, "bt": 4, "##w": 20, "into": 170, "text": 85, "discuss": 43, "thoroughly": 9, "details": 111, "how": 405, "however": 329, "can": 761, "be": 1568, "moved": 11, "appendix": 175, "also": 611, "entirely": 12, "satisfied": 8, "using": 400, "only": 387, "about": 241, "something": 30, "like": 253, "beam": 4, "search": 105, "build": 15, "\"": 1249, "soft": 70, "secondary": 2, "?": 779, "one": 458, "other": 412, "want": 50, "test": 217, "set": 326, "with": 1388, "multiple": 94, "different": 368, "difficulty": 23, "levels": 11, "try": 38, "composition": 36, "which": 764, "but": 507, "sure": 27, "captures": 7, "real": 98, "important": 161, "general": 354, "##ize": 67, "say": 47, "learning": 836, "factor": 51, "##ise": 18, "single": 119, "variable": 40, "polynomials": 3, "##ising": 5, "variables": 85, "transfer": 33, "between": 291, "these": 361, "tasks": 212, "e": 560, "g": 415, "if": 426, "network": 398, "learns": 27, "solve": 67, "equations": 21, "both": 231, "x": 274, "y": 108, "polynomial": 12, "unseen": 35, "case": 197, "option": 6, "un": 184, "##sol": 4, "##vable": 11, "example": 197, "answer": 43, "being": 88, "special": 14, "character": 22, "^": 187, "2": 949, "5": 314, "your": 324, "training": 647, "use": 378, "\\": 605, "sq": 16, "##rt": 12, "course": 20, "thank": 283, "you": 546, "suggestion": 61, "increasing": 30, "discussion": 111, "we": 2748, "\u2019": 401, "ve": 42, "expanded": 5, "possible": 121, "now": 67, "would": 620, "prefer": 3, "keep": 26, "actual": 24, "individual": 18, "module": 35, "performance": 414, "interest": 51, "space": 153, "description": 58, "was": 212, "appreciated": 9, "reviewers": 34, "very": 407, "mathematics": 14, "contains": 35, "extra": 40, "##pol": 32, "##ation": 79, "include": 84, "##ization": 404, "tests": 21, "larger": 57, "numbers": 35, "longer": 12, "sequences": 6, "more": 778, "function": 191, "compositions": 4, "similar": 190, "having": 61, "etc": 56, "b": 133, "haven": 5, "t": 429, "attempted": 8, "exhaust": 3, "##ive": 33, "types": 46, "extended": 13, "future": 123, "allow": 33, "none": 9, "currently": 45, "\u201c": 408, "\u201d": 408, "definitely": 19, "fit": 20, "within": 45, "aside": 7, ":": 1464, "no": 216, "need": 122, "have": 826, "could": 305, "simply": 53, "select": 27, "consistent": 33, "word": 37, "trained": 167, "so": 284, "far": 43, "seem": 73, "problem": 303, "output": 110, "##ting": 38, "true": 73, "false": 26, "generally": 29, "many": 139, "further": 152, "included": 61, "hope": 50, "current": 88, "range": 33, "comprehensive": 17, "reasoning": 50, "required": 38, "school": 4, "level": 104, "always": 30, "welcome": 6, "extend": 27, "questions": 139, "manner": 28, "#": 111, "weaknesses": 25, "applications": 29, "bit": 58, "unclear": 64, "nice": 67, "made": 78, "spherical": 82, "con": 273, "##vo": 168, "##lu": 170, "##tions": 30, "experimental": 182, "section": 413, "experiments": 506, "sh": 10, "##re": 72, "##c": 190, "##17": 22, "three": 61, "methods": 354, "under": 108, "performing": 35, "approaches": 87, "leaves": 7, "reader": 20, "when": 244, "someone": 9, "choose": 30, "utilize": 12, "method": 612, "proposed": 451, "then": 191, "preferred": 4, "compared": 177, "task": 271, "representation": 135, "significantly": 74, "##per": 125, "##forms": 41, "non": 190, "specific": 118, "useful": 127, "application": 43, "where": 231, "##form": 37, "strengths": 30, "developed": 17, "explained": 46, "implement": 16, "straight": 5, "forward": 37, "gp": 30, "##u": 48, "positive": 60, "review": 122, "address": 111, "concern": 57, "below": 99, "q": 263, "##1": 146, "a1": 19, "believe": 142, "best": 113, "rigid": 8, "shape": 41, "classification": 174, "retrieval": 12, "our": 1064, "achieve": 101, "##s": 1737, "state": 166, "art": 95, "11": 23, "mainly": 17, "contributed": 3, "bi": 35, "##ject": 8, "parameter": 110, "obtain": 43, "input": 157, "image": 332, "without": 134, "topological": 7, "information": 248, "losses": 26, "projection": 9, "represent": 22, "3d": 64, "will": 387, "loss": 160, "object": 73, "convex": 62, "##y": 48, "affect": 25, "extent": 11, "##2": 196, "a2": 13, "slightly": 32, "perform": 111, "due": 97, "introduced": 42, "retains": 1, "geometric": 14, "improvements": 70, "added": 167, "1": 1159, "less": 112, "top": 70, "se": 18, "##f": 107, "ed": 5, "add": 69, "stat": 4, "##istic": 14, "minimum": 21, "distance": 57, "intersection": 5, "mean": 115, "intersections": 1, "deviation": 20, "reduce": 27, "shapes": 13, "works": 130, "genus": 5, "0": 261, "closed": 11, "presented": 85, "##net": 185, "17": 14, "arbitrary": 20, "prevents": 6, "us": 91, "from": 718, "objects": 33, "topology": 5, "work": 527, "most": 154, "compact": 8, "##tion": 163, "rely": 13, "aug": 49, "##ment": 57, "type": 39, "reduced": 9, "iii": 22, "rotation": 56, "volume": 6, "##tric": 3, "multi": 157, "view": 28, "based": 346, "generalized": 12, "unknown": 11, "orientation": 5, "3": 766, "##ations": 2, "their": 294, "sparse": 55, "vox": 2, "##el": 7, "redundant": 5, "projections": 1, "cohen": 8, "et": 473, "al": 486, "2018": 203, "computational": 81, "##ly": 279, "efficient": 51, "terms": 93, "admit": 6, "price": 2, "another": 90, "advantage": 43, "allows": 49, "local": 64, "filters": 20, "global": 36, "features": 107, "extraction": 6, "este": 6, "##ves": 7, "la": 24, "##t": 196, "lo": 11, "##n": 251, "grid": 31, "conduct": 32, "fourier": 7, "common": 34, "disadvantage": 9, "support": 31, "introduces": 29, "uneven": 2, "##ness": 100, "perception": 4, "field": 56, "high": 110, "near": 16, "poles": 4, "equator": 2, "table": 187, "per": 142, "##tur": 41, "##bed": 193, "experiment": 123, "ours": 28, "performances": 13, "used": 336, "##iso": 19, "##tro": 28, "##pic": 26, "former": 14, "rotational": 4, "invariant": 27, "while": 265, "alt": 37, "az": 46, "filter": 14, "expected": 22, "iso": 28, "limits": 9, "capacity": 46, "##3": 71, "mentioned": 109, "perhaps": 31, "exciting": 6, "cnn": 37, "om": 18, "##ni": 10, "##di": 13, "##ction": 9, "##al": 162, "vision": 37, "little": 33, "rep": 67, "##osi": 1, "##tori": 1, "##es": 93, "prevalence": 2, "sensors": 2, "drones": 1, "robots": 5, "autonomous": 1, "cars": 3, "compelling": 4, "strength": 10, "provide": 133, "variant": 19, "w": 169, "##gan": 39, "called": 25, "pc": 12, "gan": 152, "point": 201, "clouds": 16, "draw": 20, "##back": 4, "vanilla": 16, "deep": 218, "class": 253, "##ifier": 65, "analyzed": 9, "rational": 6, "##ity": 147, "deco": 97, "##up": 26, "##ling": 21, "generator": 58, "discussed": 52, "sandwich": 3, "##ing": 299, "objective": 95, "estimation": 46, "##ser": 17, "##stein": 16, "aa": 14, "##e": 229, "simplified": 11, "variants": 17, "inc": 33, "##rem": 30, "##ental": 22, "cloud": 19, "comments": 254, "calculate": 6, "_": 619, "u": 58, "primal": 5, "via": 52, "solving": 17, "assignment": 4, "programming": 2, "ever": 5, "tried": 26, "sink": 4, "##horn": 4, "iteration": 106, "knowledge": 69, "popular": 29, "ot": 2, "effectively": 15, "reasons": 25, "comparisons": 50, "choice": 43, "opt": 122, "##imi": 120, "##zer": 36, "proved": 8, "s": 456, "closer": 11, "increases": 17, "variance": 68, "specifically": 75, "dynamics": 61, "l": 208, "according": 33, "le": 35, "##mma": 26, "epsilon": 61, "*": 501, "p": 194, "##ep": 3, "##sil": 1, "##on": 18, ">": 298, "assumption": 82, "stable": 12, "during": 87, "additionally": 21, "combined": 22, "mixture": 15, "20": 35, "##q": 152, "6": 168, "13": 14, "14": 21, "05": 15, "situation": 7, "value": 98, "close": 48, "analyze": 12, "stability": 15, "essentially": 18, "estimates": 32, "lower": 73, "bias": 65, "may": 152, "suffer": 10, "worse": 51, "setting": 150, "result": 149, "improvement": 82, "caused": 6, "its": 163, "ty": 60, "##po": 68, "end": 92, "2nd": 3, "line": 63, "math": 87, "##bb": 20, "{": 341, "}": 341, "3rd": 3, "page": 118, "lambda": 87, "appear": 22, "right": 75, "reviewer": 287, "his": 12, "insight": 40, "##ful": 21, "agree": 128, "way": 131, "upper": 44, "bound": 112, "original": 126, "they": 315, "diver": 41, "##gen": 14, "later": 19, "estimated": 16, "gradient": 232, "back": 83, "##pro": 40, "##pa": 40, "##gate": 6, "through": 74, "those": 91, "expensive": 28, "##fe": 3, "##asi": 3, "##ble": 70, "note": 108, "ip": 8, "##ot": 10, "xi": 7, "get": 50, "rid": 1, "##gating": 6, "adopted": 10, "bert": 56, "##se": 38, "##kas": 1, "1985": 1, "combining": 34, "##op": 7, "##ed": 106, "est": 46, "##ima": 44, "##tor": 27, "higher": 67, "concerned": 15, "treated": 5, "trade": 44, "off": 44, "practice": 63, "directly": 92, "correspond": 16, "distances": 6, "compute": 44, "scaled": 3, "f": 208, "phi": 40, "disc": 117, "##rim": 72, "##inator": 59, "k": 278, "lips": 11, "##chi": 16, "##tz": 15, "estimate": 41, "divided": 5, "therefore": 93, "just": 112, "numerical": 17, "coarse": 6, "find": 131, "ratio": 23, "ratios": 7, "replied": 1, "r": 272, "above": 75, "d": 253, "face": 9, "coverage": 14, "03": 13, "+": 168, "00": 25, "36": 8, "01": 27, "40": 11, "06": 12, "41": 4, "77": 4, "47": 5, "10": 154, "85": 4, "56": 6, "9": 44, "19": 15, "67": 9, "4": 583, "consider": 101, "seen": 54, "figure": 228, "aero": 2, "##plane": 2, "examples": 89, "fails": 8, "capture": 23, "tires": 1, "similarly": 23, "chair": 2, "recover": 24, "legs": 2, "quantitative": 43, "highlight": 15, "consistently": 12, "shown": 89, "needed": 52, "quality": 58, "=": 620, "summary": 75, "em": 177, "##ding": 191, "theorem": 113, "re": 191, "##write": 17, "rules": 7, "depth": 27, "resulting": 28, "showing": 50, "learn": 164, "apply": 43, "embedded": 7, "yielding": 1, "##written": 4, "[": 722, "app": 27, "'": 399, "##b": 59, "th": 12, "##m": 138, "rule": 40, "]": 722, "property": 27, "automated": 6, "proving": 9, "though": 63, "breakthrough": 2, "strong": 84, "weak": 41, "points": 108, "cute": 1, "proof": 52, "remain": 13, "limited": 62, "time": 262, "horizon": 19, "switch": 2, "prove": 25, "##r": 161, "environment": 27, "nicely": 9, "designed": 36, "testing": 62, "somewhat": 41, "surprising": 28, "empirical": 118, "missed": 13, "opportunity": 5, "properties": 49, "likely": 49, "fail": 25, "writing": 31, "sometimes": 17, "over": 197, "##com": 3, "##pl": 30, "##icated": 1, "sect": 3, "com": 36, "##mut": 11, "diagram": 1, "sentences": 17, "architecture": 211, "why": 239, "$": 378, "sigma": 24, "omega": 24, "separate": 19, "##4": 61, "me": 137, "keeping": 16, "benefit": 45, "##ial": 16, "picked": 9, "up": 97, "again": 47, "explicitly": 40, "recommendation": 14, "overall": 91, "majority": 8, "audience": 8, "enjoy": 1, "seeing": 4, "even": 144, "impact": 34, "people": 15, "research": 63, "detailed": 94, "alpha": 29, "linear": 80, "layer": 124, "paragraph": 86, "start": 15, "##6": 57, "##par": 9, "cheaper": 3, "computing": 18, "formulas": 6, "##7": 58, "measure": 35, "rate": 199, "##8": 40, "approximate": 43, "gamma": 39, "und": 7, "##efined": 2, "probably": 34, "capt": 23, "##ion": 28, "fig": 54, "c": 170, "don": 82, "understand": 113, "here": 119, "following": 101, "considering": 40, "pi": 22, "applied": 91, "pre": 128, "##d": 358, "step": 130, "expresses": 1, "maybe": 24, "helpful": 46, "precise": 13, "notation": 36, "great": 37, "feedback": 76, "described": 54, "producing": 6, "robust": 86, "steps": 61, "complicated": 18, "solution": 64, "baseline": 315, "suggested": 42, "failure": 12, "cases": 65, "corrected": 11, "clarified": 30, "definitions": 6, "grateful": 7, "helped": 8, "improve": 106, "proposes": 105, "enhanced": 7, "inference": 117, "strategy": 38, "feature": 91, "interaction": 12, "video": 65, "achieved": 34, "several": 93, "still": 123, "concerns": 84, "talk": 8, "ar": 155, "difference": 83, "assume": 44, "related": 101, "sampling": 80, "handle": 24, "temporal": 32, "overlap": 9, "make": 188, "memory": 31, "speed": 41, "total": 29, "importantly": 14, "comparing": 35, "res": 79, "##18": 22, "instead": 112, "##50": 11, "lack": 31, "spat": 8, "##io": 5, "##vn": 13, "##ets": 8, "min": 21, "##kowski": 3, "cv": 25, "##pr": 29, "2019": 67, "suggestions": 56, "issues": 47, "v": 129, "basically": 10, "alternative": 20, "replacing": 13, "layers": 100, "smart": 3, "blocks": 12, "branch": 3, "units": 28, "static": 5, "appearance": 2, "motion": 3, "clip": 4, "short": 36, "term": 85, "representations": 101, "long": 49, "uniformly": 3, "divide": 11, "whole": 29, "sections": 41, "randomly": 18, "action": 24, "unit": 18, "each": 279, "might": 104, "overlapping": 8, "limit": 35, "length": 22, "algorithm": 218, "guarantees": 17, "interact": 4, "train": 113, "8": 75, "##us": 26, "gt": 3, "##x": 120, "108": 5, "##0": 42, "111": 2, "##mb": 3, "takes": 27, "22": 4, "addition": 64, "reported": 67, "##fl": 5, "##ops": 1, "typical": 8, "mini": 46, "kinetic": 6, "day": 1, "days": 7, "published": 22, "after": 121, "communication": 1, "confirm": 10, "ourselves": 2, "400": 3, "74": 6, "%": 151, "whose": 13, "reports": 13, "81": 3, "##5": 46, "yields": 10, "score": 70, "cite": 14, "second": 101, "version": 136, "utilizes": 4, "videos": 26, "processes": 7, "##gb": 10, "frames": 24, "quite": 79, "actually": 63, "going": 15, "yet": 41, "significant": 96, "finally": 34, "hopefully": 10, "##bu": 49, "##ttal": 43, "stress": 5, "any": 205, "please": 117, "hesitate": 6, "tell": 14, "response": 140, "soon": 13, "rather": 111, "dense": 28, "exposition": 9, "area": 29, "self": 98, "supervised": 126, "discrete": 78, "stronger": 28, "im": 19, "##o": 110, "issue": 46, "gained": 6, "vs": 72, "continuous": 56, "take": 68, "given": 168, "leverage": 17, "nl": 29, "##p": 141, "sense": 54, "cost": 57, "shows": 90, "first": 249, "promising": 25, "li": 21, "##bri": 5, "##sp": 13, "##ee": 9, "##ch": 26, "mohamed": 2, "ir": 7, "##ie": 5, "inter": 38, "conclusion": 41, "planning": 14, "algorithms": 134, "requiring": 7, "inputs": 43, "audio": 8, "elaborate": 27, "fruit": 3, "themselves": 16, "cf": 5, "wa": 27, "##v": 225, "##ve": 51, "##ret": 22, "enables": 8, "literature": 74, "were": 114, "##ized": 92, "speech": 28, "context": 84, "chain": 26, "requires": 60, "effort": 32, "running": 32, "roughly": 9, "overhead": 4, "thanks": 80, "pointing": 37, "fixed": 120, "updated": 127, "posted": 3, "broad": 8, "##ened": 2, "del": 10, "##ine": 3, "##ated": 9, "additional": 156, "proposing": 5, "approach": 235, "diffusion": 12, "argue": 26, "incorporates": 9, "structure": 72, "independent": 34, "cascade": 9, "predict": 61, "primary": 20, "reviewing": 8, "poor": 10, "presentation": 34, "mistakes": 9, "last": 56, "starts": 4, "sentence": 48, "missing": 76, "references": 44, "empty": 5, "parent": 5, "##hesis": 1, "least": 51, "formula": 23, "manuscript": 66, "reference": 52, "15": 26, "difficult": 62, "modeling": 43, "|": 244, "12": 25, "conditional": 52, "probability": 34, "particular": 87, "node": 64, "infected": 7, "observed": 78, "plug": 5, "##ging": 3, "decomposition": 3, "arrive": 6, "formulation": 25, "drops": 3, "involves": 14, "nodes": 42, "associated": 15, "weighted": 22, "likelihood": 24, "j": 92, "##fect": 4, "beyond": 43, "sim": 16, "##ification": 8, "clear": 216, "intended": 9, "demonstrate": 49, "superior": 14, "##marks": 18, "explain": 72, "own": 23, "mention": 39, "necessary": 41, "competing": 9, "##coming": 3, "revision": 74, "reach": 10, "standards": 1, "publication": 9, "moreover": 47, "clarify": 66, "choices": 30, "consequences": 2, "clearly": 78, "valuable": 54, "clarity": 41, "adding": 45, "explanations": 22, "correct": 67, "places": 8, "been": 159, "bell": 3, "##ow": 7, "answers": 24, "remarks": 9, "totally": 9, "##ifies": 7, "log": 57, "ge": 4, "left": 24, "sum": 49, "<": 37, "aware": 28, "simplicity": 14, "##cise": 8, "chose": 13, "give": 65, "final": 57, "derivation": 17, "easier": 27, "computation": 58, "simple": 145, "product": 17, "products": 4, "since": 200, "appears": 35, "obvious": 16, "hesitated": 1, "lot": 49, "decision": 33, "taken": 20, "present": 64, "things": 25, "closely": 9, "implementation": 49, "mistake": 5, "hesitation": 1, "confusing": 35, "particularly": 32, "gives": 49, "feeling": 3, "parents": 1, "infections": 2, "involved": 14, "anymore": 5, "remains": 12, "expectation": 23, "parameters": 209, "tend": 20, "pro": 83, "##ba": 39, "##bilities": 12, "vectors": 22, "regarding": 80, "episode": 15, "gave": 3, "comprehension": 4, "allowed": 10, "precisely": 17, "##zed": 18, "update": 95, "explanation": 62, "changed": 23, "aforementioned": 5, "remark": 31, "tuned": 32, "validation": 80, "size": 128, "hyper": 194, "obtained": 42, "##i": 71, "remained": 2, "optimal": 75, "every": 36, "except": 22, "ct": 2, "##ic": 65, "dimension": 25, "50": 25, "dimensions": 20, "induce": 10, "convergence": 81, "gain": 11, "accompanied": 5, "theoretical": 111, "justification": 26, "number": 271, "spread": 3, "body": 21, "##end": 13, "##ices": 10, "overly": 4, "enough": 68, "welcoming": 1, "needs": 50, "properly": 16, "including": 54, "referring": 2, "submission": 36, "linked": 7, "tandem": 7, "recognition": 42, "genera": 74, "##tive": 135, "gm": 6, "extracted": 6, "moderately": 2, "significance": 28, "hard": 98, "assess": 8, "appreciate": 49, "efforts": 12, "times": 60, "responses": 21, "provided": 61, "major": 35, "revisions": 5, "draft": 24, "colored": 5, "red": 11, "arguments": 10, "revised": 90, "organized": 9, "completely": 26, "understanding": 59, "relation": 21, "pointed": 21, "post": 17, "hidden": 61, "##nn": 50, "purpose": 43, "handling": 11, "noisy": 52, "labels": 105, "highly": 37, "influenced": 3, "##lier": 5, "specialized": 3, "against": 59, "them": 136, "herman": 1, "##sky": 3, "h": 98, "ellis": 1, "sharma": 1, "connection": 27, "##ist": 70, "conventional": 19, "hmm": 1, "systems": 40, "ieee": 17, "##ass": 2, "2000": 3, "dear": 12, "##view": 20, "found": 99, "remaining": 12, "let": 22, "know": 50, "investigates": 5, "possibility": 8, "behaviour": 8, "##para": 121, "##meter": 136, "history": 14, "observations": 33, "researchers": 19, "reinforcement": 25, "agent": 52, "adapt": 23, "suitable": 30, "prediction": 82, "introducing": 21, "scheme": 29, "##der": 70, "predictions": 33, "collapsing": 5, "curve": 16, "next": 41, "formal": 28, "partially": 31, "ob": 9, "md": 49, "pp": 32, "human": 71, "wide": 13, "ci": 111, "##far": 108, "error": 85, "penn": 5, "tree": 21, "##bank": 4, "run": 42, "quickly": 10, "others": 24, "finishes": 3, "comparable": 32, "lean": 6, "accepting": 8, "despite": 21, "few": 131, "asks": 2, "question": 108, "avoid": 31, "potentially": 31, "prevent": 13, "unnecessary": 10, "lead": 40, "evidence": 40, "suggesting": 11, "uncertainty": 56, "confidence": 48, "intervals": 9, "otherwise": 18, "pt": 18, "looks": 13, "rest": 10, "alone": 17, "policy": 122, "seems": 214, "extremely": 24, "basic": 18, "unlikely": 7, "truly": 7, "concept": 42, "partial": 14, "##va": 21, "##bility": 60, "principle": 36, "environments": 32, "actions": 18, "ga": 87, "##uss": 64, "##ian": 120, "matching": 14, "runs": 27, "maximum": 18, "manually": 11, "adjust": 6, "constant": 53, "adjusting": 1, "constraints": 29, "tuning": 65, "comparison": 185, "leave": 10, "nevertheless": 17, "auto": 30, "tune": 26, "##rs": 47, "among": 33, "tools": 4, "successfully": 15, "##st": 62, "challenging": 45, "equally": 7, "operate": 2, "sequence": 25, "powerful": 12, "handles": 6, "st": 80, "##och": 70, "##astic": 76, "valid": 18, "benefits": 28, "mod": 88, "##ality": 15, "cannot": 65, "improves": 29, "agents": 35, "control": 77, "instance": 37, "learned": 110, "employs": 6, "weight": 83, "decay": 30, "adjustment": 2, "schemes": 14, "sub": 46, "##stan": 8, "##tia": 8, "claim": 82, "require": 41, "study": 81, "plan": 16, "open": 33, "##ai": 9, "dexter": 1, "##ous": 10, "hand": 63, "manipulation": 11, "##xi": 131, "prep": 39, "##rin": 35, "1808": 1, "001": 4, "tang": 1, "##izing": 42, "optimization": 157, "1901": 3, "105": 1, "##00": 5, "targets": 6, "studying": 8, "mutual": 87, "exclusive": 3, "existed": 3, "children": 2, "help": 81, "exists": 22, "tries": 13, "story": 4, "written": 85, "onto": 8, "##logy": 4, "dal": 3, "##mat": 3, "dog": 3, "mammal": 1, "key": 43, "hierarchical": 12, "learners": 5, "##ta": 29, "fundamentally": 5, "employed": 6, "construct": 21, "advanced": 2, "bay": 52, "##esian": 43, "unfair": 8, "misleading": 13, "suffering": 1, "sec": 50, "guide": 8, "synthetic": 71, "small": 149, "instances": 13, "n": 155, "##fi": 32, "##tting": 17, "mostly": 24, "attributed": 6, "hot": 11, "uses": 70, "solved": 18, "zero": 83, "shot": 85, "design": 52, "##balance": 17, "classes": 98, "asking": 5, "##ns": 107, "read": 54, "answered": 5, "raise": 7, "reply": 13, "jointly": 25, "novel": 96, "topic": 19, "semi": 48, "potential": 29, "di": 30, "##sor": 1, "includes": 15, "claims": 38, "removed": 10, "labeled": 31, "fairly": 25, "inconsistent": 6, "##k": 67, "organic": 7, "100": 78, "500": 12, "domains": 42, "policies": 9, "sv": 70, "##hm": 2, "7": 91, "easily": 49, "wrong": 19, "ss": 47, "##rat": 3, "##ified": 6, "##l": 364, "conjecture": 4, "regular": 182, "setup": 55, "repeatedly": 1, "making": 51, "&": 68, "selection": 50, "blue": 3, "abstract": 40, "figures": 29, "order": 95, "##able": 71, "place": 15, "prohibit": 4, "##ively": 4, "cpu": 3, "intensive": 5, "taking": 22, "ju": 6, "##dic": 11, "##iously": 4, "apologize": 15, "late": 160, "modifications": 24, "experimented": 13, "en": 99, "##mbling": 12, "\u03c0": 3, "##hn": 36, "va": 125, "teacher": 8, "250": 1, "took": 11, "comment": 70, "supplementary": 14, "material": 11, "acc": 13, "##ura": 20, "##cies": 14, "\u2014": 292, "38": 9, "71": 7, "26": 5, "99": 6, "79": 4, "27": 8, "18": 25, "02": 7, "60": 16, "21": 6, "55": 8, "48": 7, "73": 9, "31": 2, "23": 6, "61": 4, "72": 9, "lai": 5, "##ne": 20, "sam": 6, "##uli": 4, "tim": 10, "ai": 10, "##la": 13, "1610": 3, "##24": 3, "2016": 68, "##ru": 8, "mi": 51, "##yat": 14, "shin": 4, "ich": 1, "mae": 4, "##da": 17, "mas": 4, "##anor": 1, "ko": 21, "##yama": 7, "##hi": 12, "virtual": 4, "ad": 183, "##vers": 172, "##aria": 168, "1704": 2, "##9": 43, "2017": 138, "ant": 3, "##ti": 50, "tar": 9, "##inen": 3, "ha": 11, "##rri": 2, "val": 8, "##a": 79, "teachers": 2, "role": 21, "averaged": 7, "consistency": 16, "structures": 24, "materials": 7, "initial": 73, "increased": 28, "begins": 6, "\u2212": 6, "##lab": 73, "##ele": 47, "beginning": 20, "balance": 5, "balancing": 5, "000": 20, "images": 228, "45": 4, "balanced": 5, "modified": 30, "expression": 12, "performed": 45, "threshold": 63, "##max": 69, "animal": 12, "degraded": 10, "contained": 6, "ode": 2, "##na": 2, "augustus": 2, "realistic": 50, "https": 72, "org": 49, "abs": 35, "1804": 7, "09": 16, "expressions": 9, "adaptive": 45, "tutor": 4, "system": 34, "extract": 38, "concepts": 22, "negative": 74, "sets": 59, "decrease": 13, "showed": 29, "similarity": 29, "detection": 21, "listed": 8, "follows": 32, "technical": 48, "novelty": 65, "combination": 52, "mature": 1, "techniques": 65, "##or": 45, "already": 53, "searching": 3, "que": 12, "##ries": 18, "compare": 121, "title": 25, "gap": 22, "##su": 47, "##vis": 43, "pure": 10, "samples": 136, "continuity": 5, "matter": 19, "education": 3, "reached": 4, "sophisticated": 10, "retrieved": 3, "furthermore": 56, "recommend": 21, "project": 7, "students": 15, "idea": 153, "recommended": 11, "boundary": 12, "covers": 2, "patterns": 10, "correctly": 22, "feasible": 8, "nature": 33, "creating": 7, "creative": 2, "easy": 61, "su": 28, "##ffi": 4, "##ce": 18, "relatively": 34, "tough": 1, "beat": 4, "##ora": 15, "anything": 17, "differ": 10, "epoch": 35, "weights": 68, "starting": 15, "curse": 1, "dimensional": 50, "warm": 5, "means": 46, "batch": 127, "phase": 20, "intentionally": 1, "fewer": 18, "look": 27, "titled": 6, "domain": 233, "mu": 55, "##lan": 11, "distinct": 14, "define": 24, "discrimination": 2, "##inate": 3, "belong": 5, "introduce": 26, "worst": 5, "risk": 27, "##gence": 37, "separating": 2, "motivated": 31, "structured": 25, "numerous": 3, "various": 38, "digit": 11, "office": 17, "cell": 8, "nasty": 1, "effects": 12, "##uls": 1, "fraction": 6, "row": 14, "adaptation": 91, "interested": 28, "adapting": 10, "mn": 79, "m": 128, "##ps": 56, "ds": 17, "amazon": 6, "web": 5, "##cam": 3, "da": 25, "rank": 40, "entropy": 27, "obviously": 6, "must": 29, "ranking": 7, "specially": 3, "stages": 9, "##dating": 16, "harm": 2, "vary": 12, "signals": 9, "conveyed": 2, "pseudo": 13, "##ym": 17, "##metry": 3, "involve": 8, "nothing": 9, "hence": 35, "recent": 68, "##zen": 12, "##g": 108, "eric": 6, "##ina": 24, "computer": 30, "pattern": 29, "vol": 3, "bo": 8, "##mal": 14, "##is": 21, "konstantin": 1, "##os": 15, "separation": 5, "advances": 28, "processing": 38, "zhao": 9, "han": 7, "source": 70, "hoffman": 6, "judy": 3, "##hr": 2, "##yar": 2, "mo": 38, "##hri": 6, "ni": 34, "##ng": 37, "##shan": 1, "zhang": 38, "fact": 90, "aims": 15, "minimize": 25, "target": 65, "latter": 14, "goal": 68, "focused": 12, "extends": 9, "ben": 13, "david": 17, "considers": 14, "pairs": 20, "underlying": 5, "displayed": 2, "necessarily": 31, "beneficial": 23, "proceeds": 3, "sequential": 18, "ind": 9, "##uis": 1, "##hab": 2, "##le": 32, "applicable": 42, "account": 32, "##ifiers": 41, "turn": 9, "counter": 14, "productive": 1, "distinction": 14, "sources": 6, "aiming": 1, "possibilities": 1, "conservative": 3, "scala": 33, "assuming": 12, "thereof": 2, "ren": 5, "##yi": 2, "follow": 53, "hold": 17, "joint": 24, "distribution": 192, "england": 1, "texas": 1, "california": 1, "eye": 1, "confirmed": 5, "change": 45, "enforce": 9, "merge": 2, "marginal": 31, "suggests": 16, "indeed": 98, "mis": 39, "##class": 15, "early": 23, "reason": 34, "##est": 12, "##imate": 3, "equal": 28, "expect": 31, "cardinal": 2, "union": 1, "##nc": 40, "masked": 5, "attention": 93, "eras": 1, "de": 44, "allocated": 1, "elements": 15, "sharpened": 1, "links": 4, "faster": 38, "precision": 6, "ba": 21, "##bi": 42, "really": 60, "had": 35, "dramatic": 5, "vote": 10, "accepted": 16, "implications": 6, "co": 75, "##sin": 7, "content": 14, "pretty": 13, "itself": 54, "insights": 14, "cares": 1, "fixing": 4, "incorporated": 15, "complex": 71, "allocation": 3, "##urgent": 1, "thoughtful": 12, "!": 81, "deals": 1, "recovering": 4, "exact": 27, "dictionary": 27, "activation": 32, "coefficients": 18, "proper": 9, "suggest": 37, "aurora": 1, "2015": 42, "converge": 42, "##ht": 8, "##od": 25, "recovery": 12, "gu": 7, "##aran": 2, "##ties": 56, "gets": 14, "stuck": 2, "relevant": 52, "readers": 16, "intuitive": 58, "superiority": 5, "respect": 35, "suffers": 5, "##red": 12, "##ucible": 3, "coefficient": 19, "formed": 3, "overcome": 6, "##erative": 17, "removes": 2, "dependence": 23, "ultimately": 6, "highlights": 3, "sy": 2, "##iot": 4, "relationship": 30, "factors": 35, "words": 40, "progress": 17, "imperative": 1, "appropriate": 35, "remove": 15, "intuition": 32, "corresponding": 46, "statement": 21, "considered": 65, "~": 12, "##away": 4, "accounting": 1, "lass": 6, "procedure": 33, "scan": 3, "owing": 1, "orders": 9, "magnitude": 18, "sep": 2, "##arable": 2, "lowered": 2, "distributing": 1, "cores": 1, "tensor": 15, "##flow": 6, "utilizing": 7, "release": 9, "code": 71, "package": 3, "mai": 6, "##ral": 7, "online": 23, "dl": 14, "map": 48, "navigation": 11, "variation": 78, "selective": 9, "##en": 21, "##code": 74, "##ae": 16, "##mo": 62, "##dal": 40, "elegant": 8, "flaws": 2, "prior": 162, "guarantee": 23, "##ali": 73, "especially": 61, "often": 42, "imperfect": 8, "encouraged": 5, "author": 48, "auxiliary": 63, "binary": 39, "random": 106, "mask": 53, "##nt": 166, "ts": 16, "assumed": 13, "consists": 12, "##sen": 13, "##tangled": 7, "generated": 59, "ph": 5, "##ras": 3, "##con": 40, "informal": 5, "phrases": 1, "complete": 30, "##ira": 7, "list": 13, "surprises": 2, "symbol": 8, "psi": 4, "stands": 11, "crucial": 17, "never": 20, "explains": 6, "link": 18, "nr": 4, "##ms": 36, "##fc": 3, "fine": 49, "weird": 3, "rows": 9, "serve": 10, "speaking": 6, "polish": 2, "##rra": 1, "##bor": 4, "##rate": 1, "tab": 8, "##ular": 5, "sanity": 7, "check": 25, "seven": 1, "messages": 4, "designs": 2, "rejection": 9, "moment": 9, "addressed": 33, "##ions": 10, "carefully": 21, "examined": 2, "##org": 2, "##ani": 7, "##ze": 34, "settings": 82, "provides": 62, "differentiate": 1, "uno": 16, "##bs": 16, "##erved": 16, "capable": 7, "meaningful": 32, "##imo": 3, "eliminating": 1, "effect": 46, "imp": 33, "##utation": 18, "depend": 22, "##encies": 6, "##uted": 4, "conditioning": 13, "##ders": 4, "access": 17, "contradiction": 1, "individually": 10, "##ifying": 4, "attribute": 13, "conducted": 29, "pixel": 23, "upon": 18, "request": 6, "extensive": 30, "fashion": 5, "##nist": 6, "cm": 5, "##si": 3, "ict": 2, "mmm": 2, "fully": 33, "treat": 8, "observe": 32, "noise": 146, "##izer": 41, "thereby": 2, "carried": 6, "wu": 14, "weakly": 2, "ne": 55, "##uri": 42, "builds": 6, "dip": 16, "den": 15, "##ois": 11, "super": 42, "par": 13, "treatment": 8, "suited": 10, "cool": 3, "compression": 31, "doesn": 40, "stopping": 24, "##nese": 1, "##sar": 1, "introduction": 51, "assumptions": 62, "enjoyed": 6, "angle": 7, "tackled": 2, "layered": 2, "anal": 5, "##yse": 5, "applies": 14, "states": 84, "fix": 18, "matrix": 136, "256": 6, "512": 9, "vector": 52, "values": 72, "eta": 39, "restriction": 9, "natural": 67, "jp": 1, "##eg": 3, "artifacts": 16, "broken": 1, "pixels": 24, "manages": 3, "lb": 5, "##gs": 30, "label": 73, "axis": 12, "mentions": 13, "third": 16, "plotted": 3, "##ots": 2, "fitting": 11, "##less": 8, "done": 53, "independently": 16, "says": 23, "goes": 12, "able": 59, "fitted": 5, "tested": 23, "quote": 3, "squared": 11, "ms": 13, "astronaut": 1, "\u03b7": 1, "normal": 105, "computed": 33, "bad": 9, "noted": 13, "ups": 8, "##amp": 18, "##met": 24, "##rized": 9, "analog": 3, "\u2192": 2, "typically": 28, "vice": 7, "versa": 7, "foot": 5, "##note": 5, "##\u00d7": 5, "##51": 5, "64": 18, "128": 18, "respective": 10, "##int": 23, "##rod": 11, "##uce": 2, "maps": 20, "contrast": 39, "subset": 22, "wondering": 8, "harder": 24, "##sti": 4, "##llation": 3, "indicates": 12, "critically": 4, "relies": 9, "`": 67, "ul": 4, "##yan": 5, "##ov": 17, "hardly": 4, "##wr": 2, "##ote": 5, "item": 5, "acts": 3, "before": 71, "devoted": 2, "explaining": 12, "limitation": 15, "##tain": 2, "extending": 2, "##layer": 2, "counting": 13, "sign": 7, "matrices": 25, "proposition": 3, "32": 20, "side": 23, "restrictive": 5, "##ari": 51, "##th": 35, "##mic": 11, "almost": 24, "regime": 30, "operates": 3, "throughout": 14, "default": 6, "25": 5, "53": 8, "224": 2, "78": 3, "43": 4, "specify": 12, "##zes": 5, "slower": 11, "adam": 45, "descent": 25, "minor": 69, "mildly": 1, "enhance": 13, "dd": 16, "panel": 1, "around": 30, "5000": 3, "carry": 3, "simulations": 6, "plots": 24, "qu": 32, "##tative": 27, "conclusions": 21, "channel": 7, "wise": 24, "z": 168, "##j": 27, "column": 12, "channels": 5, "##word": 10, "strictly": 2, "shares": 3, "structural": 7, "similarities": 5, "equation": 64, "compromise": 2, "illustrate": 13, "wanted": 10, "chance": 7, "unfortunately": 22, "choosing": 15, "selected": 44, "##py": 2, "##ter": 37, "notebook": 2, "comes": 25, "sg": 86, "hamilton": 8, "games": 10, "max": 22, "weaker": 6, "##ca": 9, "##vity": 2, "\u2018": 42, "##line": 32, "##ty": 12, "players": 1, "norm": 47, "game": 23, "poly": 2, "##ak": 9, "##jas": 1, "##wicz": 4, "condition": 38, "concluded": 2, "##ar": 30, "pl": 22, "brings": 6, "perfectly": 5, "conference": 53, "practical": 71, "implication": 3, "huge": 8, "criticizing": 1, "absence": 4, "##cave": 12, "sufficient": 23, "meet": 4, "attracted": 2, "stationary": 14, "maxim": 15, "equivalent": 29, "community": 42, "lacking": 8, "emerge": 1, "claimed": 10, "recently": 21, "##grad": 31, "##ient": 9, "vein": 2, "##way": 1, "proportional": 7, "aziz": 3, "wai": 2, "##ss": 8, "tight": 6, "unified": 9, "spectrum": 6, "##iable": 31, "1906": 2, "##45": 4, "raised": 16, "maintain": 5, "grade": 2, "lacks": 10, "helps": 25, "fill": 2, "sufficiently": 25, "##wi": 5, "##eld": 2, "concrete": 11, "aid": 8, "certain": 27, "purely": 9, "pay": 3, "diagonal": 24, "jacob": 10, "constructing": 13, "amount": 27, "determining": 4, "curvature": 42, "ascent": 1, "critical": 17, "proven": 11, "implies": 13, "region": 8, "phenomena": 2, "traded": 2, "detect": 15, "##igen": 1, "##val": 4, "##ues": 1, "hess": 5, "released": 5, "concurrently": 2, "findings": 19, "incorporate": 26, "attempts": 6, "debate": 7, "sizes": 23, "exhibits": 5, "regimes": 11, "leads": 26, "degradation": 20, "budgets": 16, "reject": 11, "recognized": 1, "mud": 2, "##dier": 1, "argument": 21, "job": 8, "mixed": 6, "identify": 13, "identified": 3, "verify": 14, "previous": 115, "observation": 28, "dominated": 9, "scaling": 23, "shall": 10, "##ue": 7, "momentum": 16, "argued": 17, "focus": 54, "inclined": 2, "worth": 32, "reading": 36, "increase": 40, "resolved": 4, "felt": 10, "##dies": 1, "initially": 8, "simultaneously": 15, "##grade": 11, "differences": 39, "relate": 8, "analogy": 11, "differential": 7, "sd": 7, "perspective": 32, "influence": 20, "criticism": 6, "holds": 21, "tailed": 2, "quad": 10, "##ratic": 8, "unlike": 14, "predicting": 28, "arise": 8, "argues": 3, "reliable": 9, "usually": 24, "obey": 4, "theoretically": 21, "break": 4, "down": 23, "language": 46, "modelling": 9, "consequence": 1, "integrate": 5, "sample": 91, "complained": 2, "ap": 42, "##olo": 3, "##gis": 3, "intention": 5, "edit": 9, "ensure": 15, "reflected": 6, "turning": 2, "years": 7, "convincing": 42, "establish": 11, "schedules": 15, "contra": 4, "##dict": 4, "temperature": 4, "maximize": 26, "budget": 34, "sa": 20, "combines": 7, "produce": 22, "diverse": 18, "deter": 33, "##mini": 31, "##stic": 57, "functions": 43, "blur": 15, "##ry": 17, "uncertain": 9, "visually": 7, "appealing": 5, "diversity": 41, "modes": 4, "combine": 25, "cover": 11, "futures": 2, "notorious": 4, "unstable": 5, "##te": 29, "indicated": 3, "straightforward": 22, "denton": 10, "fergus": 13, "tu": 4, "##ako": 1, "indicate": 16, "offers": 9, "go": 76, "parts": 34, "##gg": 15, "arguing": 7, "ps": 5, "##nr": 4, "##im": 14, "generates": 9, "plausible": 12, "direct": 26, "##aus": 5, "##ibility": 12, "visual": 51, "simpler": 24, "thorough": 20, "unsure": 2, "lp": 7, "controlled": 9, "moving": 7, "imagined": 10, "\u2013": 14, "##laus": 3, "##ible": 7, "interactions": 2, "robotic": 12, "arm": 1, "generations": 10, "realism": 11, "rev": 24, "##run": 3, "ab": 38, "##lation": 40, "proves": 6, "fundamental": 11, "##off": 15, "inherent": 9, "ambiguity": 5, "challenge": 25, "held": 11, "ec": 15, "evaluate": 61, "axes": 6, "neither": 12, "adequately": 2, "ebert": 2, "cl": 64, "##fication": 27, "systematic": 27, "noting": 9, "feed": 14, "posterior": 44, "component": 28, "temporary": 2, "official": 3, "replace": 12, "##ip": 8, "cal": 11, "##ib": 11, "##rates": 2, "alex": 13, "match": 19, "##pt": 26, "##ual": 20, "judgement": 8, "predicted": 17, "examining": 4, "realized": 9, "##ro": 8, "##ces": 7, "##sing": 6, "crop": 6, "##ped": 7, "square": 11, "discarded": 3, "sides": 5, "##ning": 3, "didn": 12, "explored": 18, "substantially": 12, "unique": 14, "challenges": 10, "##em": 14, "##por": 3, "relationships": 13, "compound": 5, "components": 22, "known": 50, "produces": 14, "##ings": 7, "offs": 3, "##co": 2, "frame": 14, "centered": 4, "actor": 28, "struggles": 1, "entities": 15, "personal": 2, "correspondence": 2, "noticed": 4, "earlier": 12, "##erate": 12, "cyclic": 3, "flickering": 1, "artifact": 3, "aren": 9, "describing": 7, "importance": 52, "spectral": 38, "ground": 37, "truth": 30, "movement": 3, "baba": 2, "##ei": 4, "##za": 5, "##deh": 3, "perfect": 7, "subject": 6, "studies": 34, "eva": 3, "##ator": 10, "##ibly": 2, "erase": 1, "pushed": 3, "bai": 2, "moves": 2, "yo": 6, "##chai": 5, "##lau": 5, "tome": 5, "michael": 6, "distortion": 23, "1711": 5, "roe": 2, "##z": 34, "ra": 7, "##du": 19, "##oft": 2, "ze": 4, "##ln": 4, "##ik": 2, "manor": 2, "##rm": 53, "restoration": 16, "workshop": 5, "1809": 5, "07": 13, "drop": 99, "##out": 94, "exploration": 49, "happens": 25, "##icative": 6, "rewards": 29, "technique": 38, "wonder": 17, "consumption": 3, "feel": 33, "extension": 21, "alignment": 3, "constraint": 33, "motivation": 65, "reward": 66, "curious": 19, "cause": 11, "deploy": 2, "physical": 6, "robot": 42, "wear": 1, "tear": 1, "act": 8, "##ua": 7, "##tors": 14, "explores": 9, "technically": 7, "sound": 16, "glad": 11, "stated": 36, "nad": 18, "##pe": 21, "flexible": 8, "seeds": 9, "besides": 29, "hierarchy": 23, "seam": 1, "##lessly": 1, "bern": 9, "##ou": 15, "##lli": 9, "derive": 10, "adjusted": 4, "he": 49, "align": 7, "orthogonal": 20, "direction": 52, "attacks": 79, "investigate": 17, "dragged": 1, "humans": 10, "simulator": 7, "authentic": 1, "ultimate": 2, "safer": 1, "flexibility": 5, "experience": 17, "correlated": 10, "##app": 4, "##ert": 3, "ta": 3, "##ssa": 1, "synthesis": 3, "stabilization": 1, "behaviors": 13, "trajectory": 5, "2012": 5, "##aver": 1, "meta": 150, "lil": 1, "##lic": 1, "##ra": 3, "xu": 12, "explore": 28, "##ml": 68, "presents": 41, "maximal": 10, "expressive": 13, "sharing": 12, "##graphs": 1, "##qui": 26, "##var": 71, "corresponds": 15, "partition": 5, "index": 10, "graphs": 57, "identical": 30, "demonstrated": 15, "bat": 2, "##tag": 21, "##lia": 9, "applying": 32, "hartford": 17, "interacting": 2, "translation": 52, "##iance": 43, "group": 28, "strict": 10, "subgroup": 2, "flawed": 8, "quan": 63, "##tify": 12, "power": 32, "basis": 18, "inform": 28, "##ative": 25, "exchange": 11, "said": 28, "construction": 19, "reflect": 16, "merely": 14, "outside": 9, "scope": 15, "symmetry": 4, "strongly": 16, "survey": 4, "collection": 4, "yan": 7, "##ard": 2, "##ag": 1, "vis": 4, "##hwa": 1, "##nath": 1, "##an": 24, "contain": 23, "origins": 1, "consist": 3, "varying": 14, "graph": 180, "usage": 9, "phrase": 4, "skill": 13, "discovery": 13, "vic": 1, "dia": 21, "##yn": 21, "meant": 10, "##dition": 11, "skills": 17, "come": 19, "tied": 4, "doing": 22, "execute": 1, "eli": 1, "##cit": 2, "position": 12, "relative": 23, "empowerment": 5, "wherein": 2, "modifying": 3, "##ena": 13, "bounds": 63, "hear": 7, "apart": 8, "vi": 51, "##me": 15, "greatly": 12, "omitted": 3, "ideally": 5, "previously": 29, "suite": 6, "sea": 1, "##quest": 2, "##ern": 1, "wasn": 4, "incorporating": 6, "weakened": 1, "prominently": 1, "##play": 3, "liking": 1, "needing": 1, "variations": 10, "backwards": 1, "sort": 7, "consideration": 11, "environmental": 1, "create": 10, "pass": 11, "acceptance": 15, "conditioned": 20, "sat": 28, "receives": 2, "efficiently": 16, "transition": 18, "##imating": 20, "newly": 12, "evaluated": 46, "gaze": 1, "##bo": 17, "interests": 8, "##tu": 10, "##ka": 7, "##wu": 7, "##70": 5, "104": 2, "automatically": 10, "##era": 4, "combinations": 16, "afterwards": 1, "chosen": 30, "user": 6, "world": 52, "##sed": 7, "roll": 2, "##outs": 1, "imagination": 8, "impressive": 19, "efficiency": 22, "analytic": 10, "tr": 47, "##aj": 21, "##ect": 21, "##ories": 20, "highlighted": 8, "looked": 3, "determines": 3, "optional": 3, "dependent": 27, "##points": 8, "critique": 5, "##nb": 3, "prop": 34, "##aga": 24, "dreamer": 40, "200": 16, "300": 8, "30": 12, "yield": 11, "scores": 28, "hint": 5, "insufficient": 6, "studied": 35, "collisions": 1, "equilibrium": 9, "upright": 1, "pendulum": 1, "rotate": 2, "che": 6, "##eta": 3, "##h": 23, "front": 6, "feet": 2, "flip": 3, "fall": 10, "euclidean": 22, "spaces": 26, "geo": 5, "ri": 15, "##emann": 9, "manifold": 36, "arriving": 1, "sac": 12, "##ri": 35, "##yr": 6, "##ove": 5, "##ctor": 6, "##bolic": 22, "##ism": 6, "##ate": 32, "smoothly": 4, "flipping": 2, "po": 10, "##in": 23, "##care": 7, "##rdi": 2, "unification": 1, "past": 15, "pages": 5, "descriptions": 5, "journal": 10, "rigorous": 13, "competitive": 23, "rising": 1, "improved": 60, "##eli": 3, "##ted": 18, "statements": 14, "compressed": 6, "kindly": 9, "ask": 9, "together": 22, "tract": 6, "fast": 22, "accurate": 13, "solutions": 24, "##vert": 4, "##ending": 1, "compatible": 2, "abc": 5, "concerning": 7, "##ians": 6, "illustration": 8, "influences": 3, "handled": 2, "##ia": 12, "##wa": 8, "inverse": 19, "kin": 1, "##ema": 2, "##tics": 1, "reasonably": 13, "medical": 3, "inn": 10, "##ration": 8, "supposed": 7, "astro": 3, "##physics": 3, "tack": 4, "toy": 32, "demonstrates": 9, "easiest": 3, "constructive": 29, "looking": 13, "encoding": 25, "reg": 4, "##ress": 9, "inverted": 2, "science": 11, "errors": 29, "distributions": 60, "emphasize": 28, "conde": 1, "##nse": 2, "refer": 62, "full": 60, "wi": 9, "##rke": 1, "physiological": 1, "mega": 1, "##pi": 13, "monte": 8, "carlo": 8, "forest": 1, "regression": 26, "international": 26, "assisted": 1, "radio": 1, "surgery": 1, "springer": 7, "article": 11, "##11": 4, "##54": 1, "137": 6, "uploaded": 6, "changes": 35, "additions": 9, "font": 7, "convenience": 2, "count": 18, "half": 7, "attempt": 11, "accordingly": 12, "##twined": 1, "goals": 5, "ill": 7, "##umi": 1, "##nate": 2, "memo": 38, "##rization": 31, "develop": 8, "procedures": 4, "identifying": 5, "##et": 19, "detecting": 5, "##sca": 4, "##22": 2, "modern": 13, "areas": 5, "touches": 1, "explicit": 22, "anonymous": 5, "mackay": 4, "textbook": 2, "defines": 5, "##rize": 12, "mistaken": 1, "couple": 5, "cave": 2, "##ats": 1, "shallow": 12, "book": 3, "chapter": 2, "44": 11, "quoting": 1, "##df": 1, "##ord": 1, "neal": 2, "ml": 29, "complexity": 88, "width": 12, "represented": 13, "characteristic": 1, "controlling": 8, "effective": 49, "degrees": 6, "becomes": 22, "connections": 37, "slight": 3, "ox": 2, "##oro": 2, "premise": 4, "forced": 5, "sees": 2, "##sume": 3, "closeness": 9, "frequently": 5, "commented": 1, "reconstruction": 41, "opposed": 10, "coherent": 4, "referred": 9, "topics": 2, "worthy": 2, "swiftly": 1, "affected": 2, "analyzing": 4, "statistics": 20, "decide": 4, "yes": 32, "clearer": 25, "picture": 9, "accurately": 8, "opinions": 3, "organize": 2, "devote": 1, "filling": 2, "recognise": 1, "versions": 16, "90": 8, "spotted": 1, "along": 31, "ran": 12, "sc": 46, "plural": 1, "scenario": 22, "scenarios": 14, "nor": 17, "designing": 11, "quantity": 6, "aim": 25, "remember": 10, "limitations": 13, "rough": 2, "lines": 9, "membership": 6, "deserves": 3, "implicit": 27, "privacy": 1, "aspect": 7, "capabilities": 6, "serves": 3, "acknowledge": 17, "confuse": 2, "decided": 7, "opposite": 6, "reaches": 8, "reporting": 8, "improving": 26, "boundaries": 8, "defend": 4, "ld": 5, "ensemble": 42, "clean": 9, "##mina": 2, "imposing": 3, "spite": 5, "lee": 14, "ma": 33, "cited": 21, "intent": 2, "incomplete": 10, "supports": 3, "odd": 7, "started": 2, "cheap": 2, "backward": 14, "pat": 4, "##rini": 3, "fair": 28, "disagree": 8, "##10": 27, "34": 5, "##nets": 8, "##gc": 25, "boots": 5, "##tra": 9, "report": 41, "boost": 8, "definition": 44, "uniform": 11, "convinced": 7, "relevance": 7, "dozens": 1, "defence": 4, "white": 24, "box": 45, "oblivious": 3, "mc": 54, "tells": 5, "arguably": 10, "deployed": 2, "attacker": 3, "\u2026": 25, "mild": 1, "rises": 2, "wen": 7, "##dong": 1, "european": 4, "cha": 14, "wan": 2, "wei": 5, "##tao": 1, "##thi": 6, "##nk": 7, "proceedings": 16, "abnormal": 1, "developing": 6, "complementary": 7, "teaching": 7, "black": 25, "attack": 93, "qi": 6, "##ao": 2, "##hong": 1, "chen": 9, "wang": 12, "er": 5, "##fan": 2, "##je": 1, "##wick": 2, "ho": 33, "##ule": 1, "##hoe": 6, "##beck": 3, "song": 2, "bailey": 1, "subsp": 3, "##ace": 3, "intrinsic": 15, "##ming": 3, "yao": 6, "yu": 5, "gang": 4, "mia": 3, "##hua": 2, "hu": 15, "ivo": 2, "##ang": 10, "##ashi": 3, "##gi": 5, "distributed": 18, "##door": 19, "framed": 1, "differently": 8, "##ches": 8, "central": 6, "##ised": 4, "fault": 1, "tolerance": 3, "named": 9, "byzantine": 9, "persistent": 3, "aggregation": 12, "fed": 11, "##erated": 7, "fun": 1, "pill": 2, "##ut": 4, "bypassed": 3, "presenting": 5, "##cia": 2, "interpret": 31, "poisoning": 9, "kind": 19, "grain": 4, "weakness": 14, "rf": 9, "##ulata": 1, "granted": 1, "nu": 9, "##ance": 16, "wo": 4, "blanchard": 3, "dr": 4, "##aco": 2, "##sm": 12, "bu": 13, "el": 25, "##ham": 3, "signs": 4, "bernstein": 1, "db": 14, "message": 23, "mechanisms": 9, "##rum": 11, "measures": 21, "centralized": 16, "tolerate": 2, "workers": 4, "attackers": 4, "poisoned": 1, "amounts": 5, "kept": 6, "loan": 9, "tiny": 8, "poison": 3, "behave": 6, "benign": 5, "clients": 1, "malicious": 2, "updates": 40, "succeed": 4, "##ili": 5, "##ent": 9, "##while": 8, "##uch": 6, "manipulate": 6, "mit": 19, "##igate": 11, "defenses": 2, "proportion": 3, "fools": 3, "##gold": 3, "assign": 5, "extreme": 9, "four": 14, "talks": 2, "calculating": 5, "streams": 1, "streaming": 8, "heavy": 8, "hitter": 3, "oracle": 38, "returns": 2, "items": 16, "stream": 4, "##bly": 9, "gone": 2, "detail": 33, "incorrect": 8, "##mise": 1, "calls": 8, "resource": 8, "resources": 8, "##mi": 30, "##zing": 34, "intend": 5, "firstly": 7, "##mp": 22, "##oses": 2, "abstraction": 1, "trains": 5, "skip": 8, "gram": 13, "undergraduate": 1, "##osing": 2, "contents": 2, "machine": 75, "absent": 4, "63": 4, "judge": 9, "representing": 8, "movie": 5, "news": 1, "tags": 1, "broader": 6, "active": 30, "meanwhile": 6, "got": 4, "hypothesis": 22, "overs": 4, "sm": 8, "border": 4, "finding": 32, "pair": 14, "##wise": 16, "burden": 8, "hybrid": 5, "notion": 14, "bigger": 6, "240": 1, "determine": 9, "ann": 33, "##ota": 32, "relational": 20, "edge": 14, "classifications": 4, "##lick": 7, "##ovic": 9, "##hli": 13, "##cht": 10, "##kr": 13, "##ull": 10, "mechanism": 20, "convince": 6, "absolute": 5, "statistical": 38, "kernel": 28, "188": 1, "##tage": 4, "##nic": 6, "aromatic": 1, "het": 7, "##ero": 1, "##aro": 1, "##matic": 1, "compounds": 1, "chemical": 1, "bacterium": 1, "salmon": 1, "##nell": 2, "##phi": 2, "##mur": 1, "##ium": 1, "cast": 3, "##cede": 2, "modification": 13, "recommendations": 6, "investigated": 8, "style": 25, "dot": 11, "gaa": 3, "gate": 19, "investigation": 24, "##21": 7, "au": 15, "##cs": 3, "##rga": 3, "83": 7, "##gat": 11, "##sation": 4, "counterpart": 1, "unexpected": 1, "anticipated": 1, "degree": 12, "route": 2, "tackle": 10, "turns": 6, "who": 8, "indicating": 7, "pursue": 2, "absolutely": 2, "rd": 11, "##sto": 2, "##ski": 3, "paul": 2, "##heim": 2, "340": 5, "molecules": 2, "edges": 17, "triple": 31, "##ato": 1, "##bon": 1, "bond": 3, "##cture": 1, "ring": 1, "molecule": 7, "atom": 1, "owl": 1, "located": 4, "determined": 7, "##age": 7, "constitutes": 2, "##elled": 17, "viewed": 8, "comprising": 1, "gi": 17, "##ub": 13, "##anal": 1, "##ytic": 1, "##nes": 1, "www": 4, "semantics": 4, "##cho": 5, "##lar": 6, "3a": 1, "mining": 5, "84": 9, "##23": 6, "##39": 4, "##16": 5, "##31": 2, "##30": 2, "##75": 1, "##tized": 10, "stage": 22, "cpc": 4, "cross": 26, "info": 5, "##nce": 9, "gum": 9, "##bel": 8, "##book": 7, "##zation": 46, "token": 7, "phone": 6, "##mes": 4, "raw": 10, "mel": 7, "pipeline": 7, "codes": 8, "clever": 6, "adopt": 7, "span": 14, "engineering": 17, "aspects": 18, "surprisingly": 4, "exploring": 5, "implied": 4, "asked": 4, "bases": 2, "##ability": 26, "columns": 6, "indices": 5, "losing": 1, "recovered": 9, "##tite": 5, "liked": 7, "trans": 9, "##pose": 17, "incoming": 2, "outgoing": 1, "artificial": 8, "exploit": 14, "framing": 2, "approx": 7, "familiar": 10, "ki": 10, "##pf": 11, "mont": 2, "restricted": 13, "wouldn": 9, "strengthen": 8, "favour": 3, "symmetric": 7, "reduces": 10, "constrained": 16, "coincide": 2, "universal": 6, "pool": 67, "frequency": 9, "operation": 27, "satisfying": 3, "shift": 36, "equivalence": 6, "anti": 13, "alias": 11, "2d": 7, "signal": 21, "##ft": 19, "cut": 5, "frequencies": 2, "implemented": 19, "ff": 1, "differentiation": 3, "des": 6, "votes": 1, "transformation": 9, "ryu": 1, "cutting": 3, "encourages": 7, "developments": 1, "sorry": 8, "miss": 3, "opera": 1, "deal": 14, "imaginary": 11, "pad": 11, "trace": 3, "notice": 8, "tv": 6, "fidelity": 7, "digital": 1, "rich": 2, "texture": 4, "kai": 1, "##men": 3, "zu": 1, "shu": 2, "##hang": 1, "lei": 2, "##oise": 4, "280": 1, "281": 1, "jia": 6, "##wei": 3, "jin": 1, "shan": 2, "pan": 2, "sheng": 1, "ry": 5, "##nson": 1, "lau": 1, "ming": 2, "hs": 14, "##uan": 2, "yang": 9, "blind": 4, "69": 4, "sr": 5, "defined": 68, "critic": 26, "write": 10, "damaged": 2, "badly": 4, "##craft": 5, "driven": 14, "amor": 5, "depending": 7, "newton": 6, "inner": 9, "workings": 1, "br": 7, "##man": 16, "base": 27, "##zers": 24, "ada": 21, "fly": 1, "population": 7, "compares": 9, "##bit": 13, "##rar": 13, "##ily": 16, "rates": 29, "rms": 17, "maintains": 4, "manual": 12, "schedule": 26, "##bt": 6, "##bation": 28, "##ply": 4, "interval": 7, "members": 1, "##34": 9, "strategies": 22, "jump": 8, "##formed": 7, "achieving": 7, "wall": 12, "clock": 11, "evolutionary": 12, "net": 14, "globally": 3, "rosen": 7, "##bro": 6, "##ck": 7, "nearly": 3, "spanning": 2, "density": 18, "cd": 58, "para": 27, "##rise": 1, "infinite": 4, "traditional": 23, "finite": 13, "realise": 1, "treating": 3, "##bilis": 15, "##tically": 1, "letting": 1, "var": 11, "##iate": 23, "mv": 15, "##work": 2, "##ara": 37, "trick": 25, "ag": 24, "##nostic": 3, "proceed": 2, "offer": 5, "##isation": 18, "extensively": 6, "reducing": 10, "##bat": 10, "##ching": 2, "##point": 10, "theta": 129, "checked": 5, "influential": 1, "constructed": 6, "capturing": 5, "ale": 5, "ep": 10, "##iste": 5, "fa": 13, "##fide": 8, "tau": 9, "##ses": 9, "whereas": 15, "bottle": 19, "##neck": 19, "led": 5, "bn": 35, "dependency": 24, "naive": 14, "availability": 3, "algebra": 6, "operations": 28, "##yt": 6, "torch": 1, "##mm": 1, "broadcasting": 1, "mixing": 11, "pointer": 6, "objectives": 16, "legends": 2, "accessible": 2, "##eros": 6, "##ced": 11, "created": 5, "shrinking": 1, "encouraging": 12, "naturally": 7, "controls": 5, "behavior": 20, "decreasing": 3, "rise": 6, "pick": 16, "highest": 14, "97": 9, "o": 51, "curiously": 2, "prime": 2, "##fa": 5, "publications": 2, "unchanged": 6, "lou": 5, "##iz": 5, "christ": 3, "king": 6, "##ma": 12, "died": 2, "##erik": 2, "salim": 2, "##ans": 2, "##qa": 22, "program": 4, "progressive": 2, "##urs": 4, "gather": 2, "##fer": 29, "effectiveness": 21, "judging": 2, "exam": 3, "canonical": 35, "##tated": 1, "query": 18, "transmitter": 2, "receiver": 2, "received": 1, "meaning": 16, "softly": 1, "calculated": 6, "cid": 2, "109": 1, "coco": 4, "80": 13, "categories": 12, "##oa": 2, "split": 10, "49": 6, "39": 9, "dev": 4, "51": 10, "62": 6, "certainly": 10, "aimed": 3, "convey": 8, "showcase": 5, "pm": 8, "host": 3, "increasingly": 2, "edited": 2, "gently": 1, "arrow": 1, "regions": 6, "sampled": 28, "rc": 3, "background": 12, "color": 15, "54": 10, "52": 10, "gains": 21, "kim": 9, "concurrent": 4, "lu": 3, "additive": 8, "utility": 8, "cho": 19, "##quet": 15, "integral": 15, "integrated": 9, "intermediate": 19, "fuzzy": 1, "integration": 6, "remote": 1, "sensing": 1, "derek": 1, "anderson": 2, "tool": 7, "rn": 51, "doubts": 5, "referenced": 5, "mimic": 2, "fuse": 1, "caf": 1, "##fen": 1, "google": 10, "contrary": 3, "automatic": 14, "##mar": 11, "describe": 27, "inspired": 10, "##med": 3, "punish": 1, "severe": 4, "abbreviated": 2, "smallest": 1, "prone": 1, "plastic": 42, "mic": 4, "##oni": 3, "dynamic": 23, "##ally": 24, "##ulating": 5, "accomplished": 1, "eligibility": 3, "traces": 2, "modulation": 49, "striking": 4, "##ulated": 13, "cue": 7, "association": 5, "cues": 3, "water": 5, "maze": 11, "##tiv": 29, "##ates": 12, "##yp": 10, "##oth": 11, "##mine": 4, "animals": 4, "##ulate": 4, "citation": 12, "za": 8, "##plex": 9, "removing": 7, "confusion": 13, "loved": 3, "solid": 15, "##tri": 38, "##ved": 3, "##fo": 7, "##und": 3, "locked": 2, "scheduling": 6, "stimuli": 10, "caps": 4, "##rai": 1, "##sal": 1, "documented": 3, "adapted": 14, "warrant": 5, "altogether": 3, "desirable": 20, "ins": 13, "##ur": 14, "##mount": 2, "massive": 6, "timing": 3, "unpredictable": 2, "forcing": 2, "programmed": 1, "convenient": 2, "distract": 1, "##ors": 2, "credit": 2, "receiving": 2, "##hema": 3, "facilitate": 3, "terrible": 1, "finds": 7, "noticing": 2, "maneuver": 1, "plane": 2, "backgrounds": 3, "##wn": 1, "wr": 13, "engineered": 4, "complaint": 1, "scientific": 5, "isn": 16, "feat": 1, "suspect": 6, "getting": 2, "spatial": 9, "limbs": 2, "widely": 16, "addresses": 25, "involving": 5, "tracking": 4, "track": 4, "entity": 21, "core": 32, "##ference": 18, "locations": 11, "impression": 5, "##sam": 10, "##gua": 6, "location": 26, "working": 15, "advertised": 4, "##fies": 15, "happening": 4, "care": 9, "prefix": 6, "bottom": 13, "ideas": 41, "lists": 4, "represents": 13, "ll": 10, "expand": 4, "kg": 3, "mr": 9, "du": 8, "##plication": 5, "call": 7, "intra": 10, "ref": 7, "leaf": 9, "old": 9, "preserves": 1, "stored": 4, "duplicate": 6, "surface": 17, "1st": 4, "5th": 1, "resolve": 3, "continued": 2, "repetitive": 1, "glance": 3, "repeat": 4, "nuts": 1, "##hell": 1, "residual": 17, "##ge": 8, "propagation": 48, "ensures": 5, "exist": 12, "reality": 2, "remedy": 3, "reads": 8, "comprise": 1, "entire": 10, "operating": 2, "##vi": 4, "describes": 5, "confident": 8, "irrelevant": 4, "spoil": 1, "spoiled": 1, "researches": 2, "lots": 5, "##lined": 2, "play": 14, "imagine": 8, "greater": 7, "tricks": 4, "exclude": 3, "changing": 12, "criteria": 9, "te": 4, "##ens": 4, "##uc": 38, "sensitive": 13, "happen": 8, "splits": 10, "conclude": 14, "behind": 9, "methodology": 10, "unrelated": 3, "resembles": 4, "##ure": 1, "si": 29, "##gm": 31, "##oid": 24, "normally": 4, "dominates": 5, "tends": 7, "suddenly": 3, "until": 13, "advantages": 17, "999": 3, "considerable": 4, "correlation": 33, "growth": 18, "##tes": 12, "settled": 2, "criterion": 10, "slowly": 2, "exceeds": 4, "gradually": 3, "33": 4, "mode": 25, "rear": 2, "##rang": 4, "obscure": 1, "categorized": 2, "came": 1, "separated": 3, "##ys": 4, "bin": 2, "hoc": 3, "2013": 11, "coordinate": 3, "ex": 55, "classified": 7, "##train": 32, "saturated": 1, "##actic": 1, "##uro": 18, "##bbs": 1, "retro": 4, "##active": 4, "delay": 2, "incorporation": 1, "experimentation": 9, "##ping": 5, "neat": 2, "hardy": 2, "architectural": 10, "share": 20, "enthusiasm": 1, "curiosity": 31, "augmented": 9, "reacts": 1, "reaction": 1, "varies": 1, "adjective": 2, "regards": 8, "##lated": 5, "else": 7, "##horse": 1, "ease": 6, "replacement": 4, "usual": 5, "encoded": 9, "##ded": 2, "tre": 2, "##llis": 1, "bits": 16, "footprint": 3, "format": 5, "separately": 6, "double": 7, "refers": 4, "storage": 1, "cs": 5, "##ers": 11, "##words": 6, "seemingly": 8, "biggest": 7, "##time": 11, "##press": 2, "outlined": 4, "##ust": 6, "##rative": 2, "grammatical": 10, "##rea": 4, "pr": 30, "##uni": 17, "ranging": 2, "70": 6, "95": 4, "simulated": 4, "pe": 5, "1000": 22, "cycles": 2, "simulation": 13, "parallel": 18, "preparing": 2, "feeding": 4, "block": 24, "##une": 9, "alternating": 14, "reconstructed": 3, "illustrates": 3, "conversion": 3, "##ds": 2, "maintaining": 4, "dong": 3, "##so": 3, "##eh": 3, "##yu": 4, "ah": 3, "tae": 4, "pierce": 3, "chu": 4, "jae": 3, "joo": 3, "jian": 3, "##qi": 3, "##chen": 4, "lin": 7, "yuan": 3, "##bin": 7, "cao": 3, "##hiro": 4, "hong": 3, "##ha": 9, "proposal": 8, "supported": 10, "margin": 34, "justify": 13, "nets": 11, "strides": 2, "horizontal": 3, "briefly": 12, "citing": 4, "bartlett": 7, "scales": 11, "##vin": 16, "##cing": 12, "maintained": 3, "regulars": 1, "##iser": 2, "division": 1, "approximation": 65, "guaranteed": 9, "demonstrating": 10, "margins": 2, "norms": 3, "bounded": 10, "pg": 18, "originally": 6, "##ductive": 7, "merits": 5, "lie": 2, "produced": 6, "##backs": 4, "puts": 4, "inferior": 4, "tad": 7, "##am": 14, "ore": 3, "##sh": 6, "##kin": 5, "58": 6, "76": 3, "amongst": 5, "respond": 8, "mere": 3, "belongs": 6, "relieve": 1, "snail": 1, "68": 9, "88": 7, "##res": 5, "94": 5, "59": 4, "46": 3, "75": 5, "65": 8, "respectively": 16, "grows": 1, "tier": 1, "87": 2, "finn": 2, "chelsea": 1, "pieter": 2, "##bee": 3, "sergey": 2, "levine": 2, "jake": 2, "kevin": 2, "sw": 2, "##ky": 2, "richard": 4, "##mel": 1, "proto": 10, "##typical": 10, "flood": 1, "sung": 1, "yong": 2, "##xin": 1, "##hra": 4, "nik": 2, "##hil": 2, "##ten": 8, "##hd": 8, "##ala": 1, "##sure": 1, "rapid": 1, "shifted": 1, "neurons": 8, "bauer": 1, "matthias": 2, "##tic": 16, "lac": 5, "##ost": 5, "rodriguez": 1, "zhou": 4, "denny": 2, "2004": 3, "##cl": 10, "##ivity": 6, "rare": 4, "events": 7, "guess": 8, "classify": 6, "name": 12, "willing": 4, "reproduce": 7, "stand": 5, "supportive": 2, "stays": 3, "observing": 3, "corpus": 10, "fra": 6, "assigns": 1, "replicate": 2, "sincerely": 5, "stimulate": 4, "reviews": 9, "rot": 3, "deeper": 22, "successful": 14, "##cript": 5, "lowe": 1, "1999": 2, "hog": 2, "tri": 2, "##ggs": 1, "2005": 1, "reminiscent": 1, "followed": 8, "characterization": 2, "windows": 2, "established": 7, "resemble": 3, "vast": 3, "##dates": 1, "era": 2, "560": 1, "citations": 8, "scholar": 1, "bruno": 1, "ol": 4, "##sha": 11, "##use": 8, "emergence": 3, "##eptive": 4, "1996": 4, "16": 23, "ten": 3, "scenes": 8, "coding": 4, "engage": 2, "relates": 7, "scratch": 22, "gr": 24, "##ad": 2, "mall": 2, "##at": 3, "scattering": 11, "##yal": 6, "##lon": 2, "existence": 8, "det": 1, "##rac": 5, "supervision": 14, "heavily": 7, "researched": 1, "sends": 2, "caution": 1, "##ary": 5, "transformations": 8, "ing": 2, "millions": 3, "thirds": 2, "regardless": 6, "ways": 26, "put": 15, "transforms": 3, "onwards": 1, "##una": 4, "icc": 6, "cycle": 11, "addressing": 6, "##nig": 9, "##lot": 9, "substantial": 13, "id": 21, "drawn": 6, "guidance": 2, "mapping": 55, "causing": 3, "##stra": 9, "##ins": 2, "styling": 2, "identity": 9, "merit": 8, "executing": 2, "tricky": 7, "labelled": 11, "dominate": 1, "na": 17, "##mon": 3, "dirt": 1,
[...]
